<unk>	0
<s>	0
</s>	0
[PAD]	0
[CLS]	0
[SEP]	0
[MASK]	0
<unused00>	0
<unused01>	0
<unused02>	0
<unused03>	0
<unused04>	0
<unused05>	0
<unused06>	0
<unused07>	0
<unused08>	0
<unused09>	0
<unused10>	0
<unused11>	0
<unused12>	0
<unused13>	0
<unused14>	0
<unused15>	0
<unused16>	0
<unused17>	0
<unused18>	0
<unused19>	0
<unused20>	0
<unused21>	0
<unused22>	0
<unused23>	0
<unused24>	0
<unused25>	0
<unused26>	0
<unused27>	0
<unused28>	0
<unused29>	0
<unused30>	0
<unused31>	0
<unused32>	0
<unused33>	0
<unused34>	0
<unused35>	0
<unused36>	0
<unused37>	0
<unused38>	0
<unused39>	0
<unused40>	0
<unused41>	0
<unused42>	0
<unused43>	0
<unused44>	0
<unused45>	0
<unused46>	0
<unused47>	0
<unused48>	0
<unused49>	0
<unused50>	0
<unused51>	0
<unused52>	0
<unused53>	0
<unused54>	0
<unused55>	0
<unused56>	0
<unused57>	0
<unused58>	0
<unused59>	0
<unused60>	0
<unused61>	0
<unused62>	0
<unused63>	0
<unused64>	0
<unused65>	0
<unused66>	0
<unused67>	0
<unused68>	0
<unused69>	0
<unused70>	0
<unused71>	0
<unused72>	0
<unused73>	0
<unused74>	0
<unused75>	0
<unused76>	0
<unused77>	0
<unused78>	0
<unused79>	0
<unused80>	0
<unused81>	0
<unused82>	0
<unused83>	0
<unused84>	0
<unused85>	0
<unused86>	0
<unused87>	0
<unused88>	0
<unused89>	0
<unused90>	0
<unused91>	0
<unused92>	0
<unused93>	0
<unused94>	0
<unused95>	0
<unused96>	0
<unused97>	0
<unused98>	0
<unused99>	0
。	-2.5589
▁	-2.83049
の	-4.0003
が	-4.49976
は	-4.58032
で	-4.61569
を	-4.67599
と	-4.77841
に	-4.78552
も	-5.17812
ね	-5.38018
、	-5.42462
から	-5.56631
です	-5.59825
ですね	-5.6891
ん	-5.7352
か	-5.73732
な	-5.78098
この	-5.9001
1	-5.965
って	-5.96552
あの	-5.98321
し	-5.99687
て	-6.09862
その	-6.10657
とか	-6.11716
2	-6.14037
や	-6.15891
た	-6.17382
ちょっと	-6.18398
して	-6.27113
3	-6.29483
これ	-6.33966
よ	-6.35961
だ	-6.46076
する	-6.46608
もう	-6.49218
なんか	-6.57284
っ	-6.58033
4	-6.58553
した	-6.61246
まあ	-6.63544
という	-6.68007
でも	-6.70835
今	-6.7698
ます	-6.77896
い	-6.8171
さん	-6.83257
人	-6.84359
ない	-6.8499
▁a	-6.85725
ので	-6.86978
る	-6.89316
あ	-6.90782
はい	-6.93019
さ	-6.95724
これは	-6.96053
いい	-6.9684
日	-6.97003
そう	-6.9717
5	-6.99432
ある	-7.05388
8	-7.05991
ねー	-7.06187
年	-7.06548
分	-7.0722
ー	-7.07666
また	-7.1128
だから	-7.11338
▁まあ	-7.12806
大	-7.14911
それ	-7.17603
私は	-7.17777
します	-7.18926
中	-7.19057
つ	-7.19352
として	-7.2247
けど	-7.23103
まで	-7.24147
月	-7.26294
ら	-7.26614
へ	-7.27201
それは	-7.27524
っていう	-7.28034
ば	-7.28517
ました	-7.28886
6	-7.29103
いる	-7.30279
では	-7.31266
10	-7.31887
お	-7.32411
だけ	-7.32757
なぁ	-7.33405
すごい	-7.34341
回	-7.34707
方	-7.35071
そして	-7.35095
ああ	-7.35745
本	-7.38674
こと	-7.39536
には	-7.4043
何	-7.41765
本当に	-7.42173
います	-7.4453
やっぱり	-7.45221
こう	-7.45405
じゃあ	-7.48216
ま	-7.48958
う	-7.50262
かな	-7.50684
んで	-7.50926
▁この	-7.51607
んだ	-7.51824
前	-7.52863
私	-7.53302
り	-7.53719
ス	-7.53945
だった	-7.54856
ですよ	-7.5511
者	-7.55877
結構	-7.57346
みたいな	-7.5767
ねぇ	-7.5903
子	-7.59443
いた	-7.59597
ということで	-7.60358
時	-7.61288
ず	-7.62701
9	-7.62969
まだ	-7.63612
している	-7.64296
ぞ	-7.64463
それを	-7.6518
何か	-7.6694
んですよ	-7.67023
より	-7.67919
ように	-7.69208
後	-7.69625
なら	-7.71572
す	-7.71846
んですけど	-7.72595
よく	-7.72678
のか	-7.73736
っていうのは	-7.75114
でした	-7.75189
▁4	-7.75777
できる	-7.75952
よね	-7.7597
さあ	-7.76199
ですよね	-7.76518
なんで	-7.76882
ください	-7.78078
時間	-7.78093
ちゃん	-7.78106
しました	-7.78213
ここで	-7.78626
そういう	-7.7873
それが	-7.79021
なので	-7.79826
れ	-7.79933
と思います	-7.80603
山	-7.80604
ような	-7.80989
一	-7.8176
のは	-7.81979
された	-7.82465
じゃない	-7.82581
上	-7.8264
く	-7.83133
でしょ	-7.8345
ここ	-7.83867
7	-7.83897
ところ	-7.84408
たら	-7.85092
がある	-7.85619
目	-7.85851
みんな	-7.86049
▁そして	-7.86467
である	-7.86497
水	-7.8659
まず	-7.86898
あれ	-7.88142
良い	-7.88487
もの	-7.8867
について	-7.88947
家	-7.89416
うん	-7.89642
数	-7.89701
ですか	-7.89732
んです	-7.89885
そんな	-7.90135
▁2	-7.90963
にも	-7.91377
私の	-7.91648
車	-7.92762
位	-7.93057
所	-7.93365
見	-7.93409
あっ	-7.93864
話	-7.94119
音	-7.94162
になる	-7.94594
名	-7.94803
というのは	-7.96668
だと	-7.96686
たい	-7.9676
今日	-7.96938
ません	-7.97029
いや	-7.97187
があります	-7.98525
ねえ	-7.98664
的な	-7.98824
▁今	-7.99042
やって	-7.99356
金	-7.99589
ここに	-8.00025
これが	-8.00361
俺	-8.00958
ア	-8.01069
ねあの	-8.01306
み	-8.0144
こういう	-8.01646
高	-8.01959
見て	-8.02084
生	-8.02449
力	-8.02822
まぁ	-8.02928
んですね	-8.03307
じゃ	-8.0334
ながら	-8.0401
自分の	-8.04087
▁1	-8.04607
になります	-8.04828
あなたは	-8.05592
▁c	-8.05831
こ	-8.0584
き	-8.06044
どう	-8.06879
ことを	-8.06993
んだけど	-8.07069
えっ	-8.07186
など	-8.07211
いて	-8.07214
皆さん	-8.07215
と思う	-8.08075
ありがとうございます	-8.09848
いう	-8.10234
ト	-8.10513
だって	-8.10981
ただ	-8.11443
ル	-8.12011
ご	-8.12608
ちゃんと	-8.12926
▁その	-8.13161
あと	-8.13165
一番	-8.1351
なんて	-8.13604
ド	-8.13682
ラ	-8.13753
色	-8.13796
ぐらい	-8.13929
私が	-8.13971
これで	-8.1433
というか	-8.14599
なんですけど	-8.14749
なかった	-8.14786
こんな	-8.15005
番	-8.15159
ですが	-8.15232
しか	-8.15283
リ	-8.16184
あー	-8.16265
非常に	-8.16453
やっぱ	-8.16719
いく	-8.16884
下	-8.17008
的	-8.17609
いっ	-8.17761
これを	-8.17834
なる	-8.18181
なく	-8.18566
日本	-8.18998
▁はい	-8.19056
20	-8.19471
しています	-8.19485
そうですね	-8.19565
バー	-8.19707
多分	-8.19822
わ	-8.20117
くる	-8.20324
あなたの	-8.20442
感じ	-8.21033
される	-8.21237
0	-8.21275
▁私は	-8.21276
つの	-8.21342
ク	-8.21732
▁5	-8.22097
万	-8.22314
例えば	-8.22339
それで	-8.22479
気	-8.22581
あなたが	-8.2268
全然	-8.22811
によって	-8.22927
だろう	-8.22952
え	-8.23034
僕	-8.23162
人が	-8.23175
時に	-8.23329
前に	-8.23456
ている	-8.23723
ほど	-8.24085
もっと	-8.24363
少し	-8.24545
きた	-8.24987
全部	-8.25218
国	-8.25367
ゲーム	-8.25519
だよ	-8.26666
んだよ	-8.26724
せ	-8.26761
よう	-8.27055
すると	-8.27828
ずっと	-8.27898
すごく	-8.2803
ため	-8.28284
▁s	-8.2833
カー	-8.28977
になって	-8.29035
んですよね	-8.2905
やる	-8.2916
強い	-8.29268
点	-8.29283
手	-8.29325
マ	-8.29494
あって	-8.2984
今日は	-8.30187
った	-8.30279
なんだ	-8.30628
性	-8.30785
言って	-8.31014
▁これ	-8.31015
的に	-8.31209
等	-8.31214
出	-8.31551
市	-8.31791
会	-8.31797
あった	-8.32209
地	-8.32271
木	-8.32667
▁3	-8.32787
風	-8.32856
度	-8.32889
個	-8.32997
体	-8.33086
違う	-8.33239
円	-8.33247
ために	-8.33442
▁b	-8.33964
曲	-8.34079
第	-8.3417
だったら	-8.34303
▁でも	-8.34551
部	-8.34708
ですけど	-8.34768
同じ	-8.34922
あり	-8.35512
でしょう	-8.35611
30	-8.35654
ズ	-8.35776
実は	-8.36457
道	-8.37423
あります	-8.37521
問題	-8.37558
100	-8.37695
ッ	-8.38047
カ	-8.38284
人の	-8.38299
口	-8.38363
僕は	-8.3839
があって	-8.38398
っていうのが	-8.38579
彼は	-8.3858
コ	-8.3889
したい	-8.3915
なぜ	-8.39284
他の	-8.39446
いつも	-8.39663
なって	-8.39674
二	-8.40065
って言う	-8.4011
パ	-8.4049
頭	-8.40491
神	-8.40552
され	-8.40818
愛	-8.41077
まして	-8.41106
それから	-8.41496
タ	-8.41499
だけど	-8.41951
くらい	-8.42003
店	-8.42209
行く	-8.42211
ねっ	-8.42437
▁あの	-8.42542
いろんな	-8.42687
▁8	-8.42752
方が	-8.42847
とき	-8.42986
枚	-8.42987
されている	-8.43262
田	-8.43417
人は	-8.43421
ちゃう	-8.43621
なん	-8.43696
新しい	-8.44481
化	-8.44836
新	-8.44907
私たちは	-8.4497
ナ	-8.44978
入って	-8.45444
いきます	-8.45499
そこに	-8.45833
▁じゃあ	-8.46203
様	-8.46215
外	-8.46276
になった	-8.46382
自分	-8.47013
大きな	-8.47166
かなり	-8.47249
女	-8.47341
いない	-8.47479
小	-8.47837
ポイント	-8.48135
線	-8.48209
大丈夫	-8.48244
系	-8.48654
の中で	-8.48979
じゃないですか	-8.49061
えっと	-8.49198
なんですよ	-8.493
てる	-8.49428
ことは	-8.49599
む	-8.49657
そうです	-8.49721
そこで	-8.49815
持って	-8.50067
マン	-8.50322
さんが	-8.50561
のために	-8.50563
なかなか	-8.51036
ああああああ	-8.51158
じゃん	-8.51195
ロ	-8.51264
もちろん	-8.51568
リー	-8.51578
ですから	-8.51737
▁ok	-8.51817
できない	-8.51877
の方	-8.52054
言う	-8.52251
一緒に	-8.52284
されて	-8.52352
白	-8.52901
これから	-8.52936
戦	-8.53009
来	-8.53038
着	-8.53217
号	-8.53236
すぐ	-8.53711
間	-8.53845
さらに	-8.54036
ろ	-8.5413
ええ	-8.54371
空	-8.54372
とても	-8.54554
a	-8.54716
め	-8.54902
村	-8.55004
してる	-8.55206
長	-8.55384
動画	-8.55491
そ	-8.55493
でございます	-8.55531
▁p	-8.55545
さんの	-8.55628
今回	-8.55661
考え	-8.55676
▁だから	-8.55707
ということ	-8.56037
または	-8.56223
ちゃ	-8.56258
面白い	-8.56367
▁また	-8.56391
版	-8.56394
ティ	-8.57254
▁さあ	-8.57412
以上	-8.57478
花	-8.58504
ダ	-8.58908
ぬ	-8.58941
どんな	-8.58977
だけで	-8.59
わー	-8.5925
ましょう	-8.59291
▁ああああああ	-8.60183
▁t	-8.60312
いっぱい	-8.60354
いろいろ	-8.60388
めっちゃ	-8.60396
レ	-8.60822
こちら	-8.60866
キー	-8.61227
物	-8.61268
ぜ	-8.61383
▁ブーブー	-8.61391
け	-8.61522
先	-8.6178
米	-8.6198
れる	-8.62402
絶対	-8.62775
12	-8.628
町	-8.62832
シ	-8.62991
次	-8.63136
▁あ	-8.63211
たり	-8.63227
への	-8.63543
イ	-8.63574
デー	-8.63614
ム	-8.63641
と言う	-8.63674
あなた	-8.64158
ことが	-8.6422
なくて	-8.64273
やつ	-8.64319
黒	-8.64969
品	-8.6523
面	-8.65258
場所	-8.65324
と思って	-8.65335
すべての	-8.65425
したら	-8.65822
ています	-8.65843
れば	-8.66039
しない	-8.66069
仕事	-8.6608
元	-8.66316
すべて	-8.66563
かなぁ	-8.66939
であり	-8.66971
台	-8.67322
心	-8.67485
15	-8.67609
▁f	-8.67957
に対して	-8.68263
ン	-8.683
パー	-8.68418
ときに	-8.68467
島	-8.6854
サ	-8.68909
▁d	-8.68926
アップ	-8.68943
s	-8.68989
母	-8.69219
ぜひ	-8.69414
多い	-8.69443
バ	-8.69532
世界	-8.69651
情報	-8.69719
法	-8.69905
にある	-8.70085
イン	-8.70128
んですけれども	-8.70152
▁ああ	-8.70415
場合	-8.7045
通り	-8.70454
歳	-8.70504
特に	-8.70506
なんです	-8.70542
足	-8.70569
三	-8.70707
ではない	-8.70747
これも	-8.70756
ありがとう	-8.70924
▁ええええええ	-8.71204
実際に	-8.71276
高い	-8.71446
こっち	-8.71476
キ	-8.71547
ど	-8.71633
よりも	-8.71771
ここは	-8.72039
星	-8.72114
11	-8.72326
理由	-8.72653
さっき	-8.7277
スター	-8.72814
けれども	-8.72846
正	-8.72924
中で	-8.72977
▁これは	-8.73091
事	-8.73184
▁しかし	-8.73269
書	-8.73352
ことで	-8.7359
みたい	-8.73645
使って	-8.73807
語	-8.74031
悪い	-8.74427
行	-8.74538
フ	-8.74643
型	-8.74697
どんどん	-8.74995
ち	-8.75216
場	-8.75278
早く	-8.75313
いました	-8.75615
としては	-8.75773
を使って	-8.75773
どうぞ	-8.7588
パン	-8.76084
初めて	-8.76093
もし	-8.76174
の方が	-8.76544
プロ	-8.76556
あんまり	-8.76675
のように	-8.77104
▁g	-8.77216
そこ	-8.77551
形	-8.77557
関係	-8.7798
ブ	-8.77989
んですが	-8.78037
内	-8.78085
▁r	-8.78161
プ	-8.78161
をして	-8.78196
取り	-8.78383
うーん	-8.78439
なんですね	-8.78448
声	-8.78538
があった	-8.78562
約	-8.78639
ボール	-8.78797
あまり	-8.78952
聞いて	-8.78982
▁もう	-8.7904
ありがとうございました	-8.79298
用	-8.79426
ですねー	-8.79438
はもう	-8.79512
状態	-8.79565
ミ	-8.79617
ございます	-8.79709
らしい	-8.79742
今回は	-8.80036
自分が	-8.80124
しっかり	-8.80132
顔	-8.80145
オ	-8.80167
でしょうか	-8.80207
がいい	-8.80296
方法	-8.80348
もうちょっと	-8.80627
川	-8.80674
付	-8.80712
石	-8.80731
なり	-8.80774
▁て	-8.808
男	-8.80972
ディ	-8.81024
件	-8.81051
ああああ	-8.8106
超	-8.81067
しかし	-8.81108
ター	-8.81325
タイプ	-8.81847
ねこれ	-8.8186
ものを	-8.81927
一つ	-8.82016
海	-8.82075
秒	-8.82216
▁あー	-8.82285
ラー	-8.82325
自分で	-8.82334
かもしれない	-8.82572
ネ	-8.82621
▁e	-8.82664
50	-8.82747
不	-8.82822
ことができます	-8.82917
やった	-8.83062
馬	-8.83069
からね	-8.83098
一応	-8.83108
おります	-8.83389
ないと	-8.83684
▁やっぱり	-8.83915
チーム	-8.84198
感	-8.84247
思い	-8.84356
というのが	-8.84388
来て	-8.84501
カード	-8.84612
の音	-8.84689
ノ	-8.8475
くん	-8.84978
▁いや	-8.84995
チ	-8.85096
グ	-8.85213
好き	-8.85218
・	-8.85344
ますね	-8.85763
ガ	-8.85788
どこ	-8.85827
▁まず	-8.85952
やはり	-8.85958
大きい	-8.85999
文	-8.86088
今の	-8.86095
表	-8.86161
同	-8.86197
日本の	-8.86349
考えて	-8.86361
主	-8.86611
頃	-8.86706
あとは	-8.8674
ハ	-8.8684
してください	-8.86917
アン	-8.87126
ところで	-8.87207
君	-8.87505
会社	-8.87648
だと思います	-8.87868
難しい	-8.88369
ほとんど	-8.88621
方は	-8.88621
なった	-8.88701
全	-8.88895
を見て	-8.88924
女性	-8.89058
m	-8.89269
別	-8.89387
代	-8.89394
質問	-8.89505
っていうか	-8.89597
買って	-8.8961
欲しい	-8.89645
くれ	-8.89731
ジ	-8.89749
を持って	-8.8979
こちらの	-8.89792
って言って	-8.89951
られる	-8.9016
だね	-8.90184
やすい	-8.9029
▁例えば	-8.90368
とは	-8.9058
おり	-8.90639
人間	-8.90982
ねちょっと	-8.91096
機	-8.91495
これらの	-8.9152
んですか	-8.91601
次の	-8.91803
無	-8.91835
わかる	-8.91877
言った	-8.92074
船	-8.92091
やってる	-8.92203
だろ	-8.92381
ついて	-8.92395
選手	-8.924
私も	-8.92428
駅	-8.92563
赤	-8.92632
行って	-8.92655
ですねあの	-8.92781
倍	-8.92842
ソ	-8.92873
サー	-8.92954
北	-8.93005
各	-8.93031
んですけども	-8.93084
ボ	-8.93199
なのか	-8.93591
光	-8.93697
ほんと	-8.93756
ビ	-8.93889
多くの	-8.93943
お前	-8.93946
説明	-8.93972
イメージ	-8.94028
県	-8.94031
作って	-8.9424
言葉	-8.94248
そのまま	-8.94348
何も	-8.94408
g	-8.94501
使う	-8.94592
朝	-8.94672
式	-8.94705
状況	-8.94817
つまり	-8.95008
私たちの	-8.9506
っていうのを	-8.95157
例	-8.95268
最近	-8.95284
ちょうど	-8.95441
ガー	-8.95916
種	-8.95934
ダメ	-8.96224
▁何	-8.96243
中に	-8.96282
マー	-8.9635
原	-8.96373
多く	-8.96424
いった	-8.96487
入った	-8.96518
直	-8.96548
寝	-8.96557
丸	-8.96622
ターン	-8.96697
に行く	-8.96706
いって	-8.96756
ハイ	-8.96824
猫	-8.96994
見た	-8.97045
▁ブーバー	-8.97359
モ	-8.97528
一人	-8.97648
リング	-8.97758
研究	-8.98003
じゃなくて	-8.98004
彼の	-8.98214
先生	-8.98288
野	-8.98395
どういう	-8.98616
必要	-8.9881
o	-8.98815
やばい	-8.98918
れた	-8.98937
ロー	-8.98965
んだろう	-8.99079
エ	-8.99089
-	-8.99212
ライン	-8.99352
実	-8.99398
できます	-8.9943
西	-8.99439
区	-8.99529
そういった	-8.99655
していた	-8.99845
このように	-9.00041
とかね	-9.00132
よねー	-9.0041
たくさん	-9.00536
東	-9.00692
社会	-9.00826
▁私の	-9.009
がない	-9.01559
環境	-9.01649
コメント	-9.01705
▁今日は	-9.01772
それぞれ	-9.01838
ウ	-9.02017
▁私が	-9.02044
なんですけれども	-9.02048
▁本当に	-9.02063
ここまで	-9.02231
ラン	-9.02336
映画	-9.02406
シーン	-9.02418
ザ	-9.02455
ということです	-9.02483
学校	-9.02568
食	-9.02604
僕の	-9.02762
皆	-9.02764
の中に	-9.02924
メ	-9.02984
部分	-9.03089
その後	-9.03109
食べ	-9.0317
こうやって	-9.03237
結局	-9.03282
確かに	-9.03402
していく	-9.03553
行き	-9.03649
入れ	-9.03654
とも	-9.03734
私たちが	-9.03802
楽しい	-9.03809
左	-9.03878
▁お	-9.03916
になっている	-9.03966
トップ	-9.04027
▁なので	-9.04074
誰か	-9.04091
学	-9.04126
弾	-9.04149
しまう	-9.04405
くれる	-9.04543
はない	-9.04544
右	-9.04665
楽	-9.04702
早い	-9.04731
はですね	-9.04737
雨	-9.04756
まずは	-9.04838
しながら	-9.04846
夢	-9.04867
誰	-9.04884
せる	-9.04889
おっ	-9.05022
させる	-9.05096
お金	-9.05157
南	-9.05205
▁m	-9.05325
結果	-9.05418
犬	-9.05456
による	-9.05473
すぐに	-9.05511
味	-9.05521
裏	-9.05638
攻撃	-9.0566
▁そう	-9.05671
ツ	-9.05685
ことができる	-9.05696
お願いします	-9.05716
システム	-9.05767
最後	-9.05866
切り	-9.05873
ファン	-9.05982
ありません	-9.06013
▁the	-9.06094
校	-9.06187
夏	-9.06245
別に	-9.06258
デ	-9.0634
レベル	-9.0635
▁i	-9.06393
40	-9.06426
なんと	-9.06428
青	-9.06432
ニ	-9.06571
万円	-9.06729
素晴らしい	-9.06797
頑張って	-9.06838
簡単に	-9.06933
とこ	-9.06953
出す	-9.06983
すれば	-9.07053
させて	-9.07087
だな	-9.07549
機能	-9.07592
いきましょう	-9.07715
わけです	-9.07734
彼らは	-9.07748
こそ	-9.07819
データ	-9.07852
られた	-9.07955
それでは	-9.08098
ねはい	-9.08126
にして	-9.08159
実際	-9.0826
セット	-9.08353
▁n	-9.08387
無理	-9.08404
ここから	-9.08422
そうな	-9.08441
場合は	-9.08551
のかな	-9.08589
だし	-9.08709
活動	-9.08798
さんは	-9.08899
んだよね	-9.089
しましょう	-9.08923
流	-9.08981
長い	-9.09076
のような	-9.09097
コン	-9.0936
年に	-9.09506
されています	-9.09549
大変	-9.09677
普通に	-9.09746
カラー	-9.09843
時代	-9.09915
思う	-9.10098
セ	-9.10124
いける	-9.10145
可愛い	-9.10162
e	-9.10198
発	-9.10264
プレイ	-9.10273
▁j	-9.10281
ても	-9.10413
作業	-9.10483
そんなに	-9.11069
今まで	-9.11224
御	-9.11265
動き	-9.1141
べ	-9.11639
最初の	-9.11687
俺は	-9.11706
ですかね	-9.11745
僕が	-9.11794
とりあえず	-9.11814
めちゃくちゃ	-9.1192
▁それは	-9.11975
になりました	-9.12054
▁ただ	-9.12101
もね	-9.12327
横	-9.12345
作	-9.12371
いくつかの	-9.12421
c	-9.12545
ぐ	-9.12549
▁ます	-9.12565
設定	-9.12778
ではありません	-9.1278
平	-9.12843
行った	-9.12942
スタート	-9.12952
きて	-9.13037
役	-9.13052
最後に	-9.13054
▁here	-9.13274
勉強	-9.13289
カメラ	-9.13533
生活	-9.13699
▁私	-9.1379
服	-9.13878
おそらく	-9.14008
ベ	-9.14017
バック	-9.14151
はね	-9.1416
をする	-9.14233
ゴ	-9.14265
もある	-9.14384
やり	-9.14463
美	-9.14502
▁いやー	-9.14602
っぽい	-9.14657
波	-9.14739
見る	-9.14743
ますよ	-9.14779
とって	-9.1505
イベント	-9.15134
ていた	-9.15218
熱	-9.15323
館	-9.15491
ところが	-9.15528
東京	-9.15549
割	-9.15613
意味	-9.1588
だったり	-9.16062
サービス	-9.1607
歌	-9.16196
よって	-9.16294
企業	-9.16387
最初に	-9.16472
大学	-9.16479
そうだ	-9.16541
ネット	-9.16765
経験	-9.16809
でね	-9.17185
こいつ	-9.17197
別の	-9.17336
年の	-9.174
まあまあ	-9.17404
社	-9.17477
試合	-9.17501
パターン	-9.17529
の話	-9.17532
なんですよね	-9.17552
なんとか	-9.17754
なんだけど	-9.17787
▁では	-9.17865
キャラ	-9.17994
はず	-9.18079
できた	-9.18139
姉	-9.18175
んじゃ	-9.18194
あのー	-9.1821
持ち	-9.18246
集	-9.18422
対応	-9.18451
出る	-9.18478
人に	-9.18586
好きな	-9.18588
モデル	-9.18588
そうそう	-9.18598
入っ	-9.18614
写真	-9.18653
後に	-9.19125
だいたい	-9.1915
逆	-9.1923
時は	-9.19279
奴	-9.19365
受け	-9.19383
嬉しい	-9.19455
ということは	-9.19469
のこと	-9.19481
ものが	-9.19665
パワー	-9.19665
と一緒に	-9.19719
うまく	-9.198
天	-9.19817
座	-9.19854
なるほど	-9.19859
があり	-9.19901
配信	-9.19964
いただいて	-9.20035
シー	-9.20189
安	-9.20212
屋	-9.20221
よろしくお願いします	-9.20329
すぎ	-9.20392
本当	-9.20776
初	-9.20805
年間	-9.20807
▁6	-9.20816
大きく	-9.20886
もん	-9.20892
期	-9.20916
教育	-9.21069
しかない	-9.21115
流れ	-9.21131
おい	-9.21203
紹介	-9.21245
に入って	-9.21342
▁結構	-9.21344
骨	-9.21454
技術	-9.21462
音楽	-9.21528
▁youtube	-9.21591
バス	-9.21594
管理	-9.21597
いません	-9.21719
▁そういう	-9.21851
リア	-9.22038
としても	-9.2208
ですねこの	-9.22167
組	-9.22205
あるいは	-9.22212
茶	-9.22219
何を	-9.22303
▁えっ	-9.22308
技	-9.22385
▁re	-9.22482
いやー	-9.22552
買った	-9.22796
アメリカ	-9.22907
使用	-9.23017
橋	-9.23145
にょ	-9.23247
の方に	-9.2325
ケ	-9.2329
▁俺	-9.23319
待って	-9.23341
日に	-9.23514
▁10	-9.2356
ほしい	-9.23639
私たち	-9.23647
ねうん	-9.23681
されました	-9.23839
逆に	-9.23903
城	-9.23979
については	-9.24159
しております	-9.24166
室	-9.2418
量	-9.24189
名前	-9.24236
よかった	-9.24256
上に	-9.24535
々	-9.24543
ということを	-9.24734
テ	-9.24767
チェック	-9.24782
きました	-9.24806
▁by	-9.2481
地域	-9.24818
ほ	-9.24821
良かった	-9.24832
悪	-9.24851
▁それでは	-9.24856
られ	-9.24935
しかも	-9.25046
パス	-9.25075
食べて	-9.25076
火	-9.25084
前の	-9.25107
わけですね	-9.25221
子供	-9.25247
スト	-9.25296
なんですが	-9.25357
最初	-9.25476
b	-9.2551
作品	-9.25548
練習	-9.2557
土	-9.25775
行動	-9.25846
と思うんですけど	-9.25965
巻	-9.26064
彼	-9.2609
わからない	-9.26113
真	-9.26318
小さな	-9.26358
勝	-9.26441
に関しては	-9.26446
井	-9.26496
来た	-9.26583
ヤ	-9.266
薬	-9.26822
最後の	-9.26887
答え	-9.26949
値	-9.26962
ちゃった	-9.27037
彼が	-9.27079
今回の	-9.27105
するために	-9.27144
されます	-9.27201
キロ	-9.27238
なあ	-9.27248
っている	-9.27354
移動	-9.2746
チャンネル	-9.27512
d	-9.27576
p	-9.27586
一度	-9.27621
玉	-9.27636
気持ち	-9.2766
でまぁ	-9.27666
スキル	-9.27668
それに	-9.27689
ライブ	-9.27744
▁k	-9.2776
かー	-9.27819
見える	-9.2782
18	-9.27837
家族	-9.2798
知らない	-9.27995
書いて	-9.28067
違い	-9.28127
評価	-9.28296
▁to	-9.28331
意識	-9.28359
▁大	-9.28367
かも	-9.28393
かった	-9.28415
25	-9.28484
こういった	-9.28683
っていうこと	-9.28722
雪	-9.28768
しまった	-9.28865
ができる	-9.28888
というふうに	-9.28891
立	-9.28968
がー	-9.29171
させ	-9.29193
のある	-9.29193
軍	-9.29198
でき	-9.29271
ふ	-9.2939
効果	-9.29446
仲間	-9.29447
16	-9.295
派	-9.29676
ずに	-9.29712
アレ	-9.2992
必ず	-9.30074
食べる	-9.30247
事業	-9.30297
重	-9.30385
どの	-9.30394
入れて	-9.30413
先に	-9.30613
いけない	-9.30969
かどうか	-9.31061
それでも	-9.31078
とかも	-9.31087
▁9	-9.3113
対	-9.31239
じ	-9.31275
開発	-9.31334
からの	-9.31368
谷	-9.31383
ピン	-9.31384
おいて	-9.31397
を作る	-9.31432
税	-9.31474
出て	-9.31478
とにかく	-9.31609
引き	-9.31609
桜	-9.31619
だよね	-9.3167
かっ	-9.31708
はありません	-9.31823
13	-9.31904
ことに	-9.31928
▁そんな	-9.31989
ペン	-9.31995
強	-9.3214
ほぼ	-9.32171
パパ	-9.32187
論	-9.32287
先ほど	-9.32342
と思った	-9.32373
+	-9.32479
んじゃない	-9.32635
階	-9.32668
もらって	-9.32681
▁ています	-9.32716
言い	-9.32744
調査	-9.32791
私に	-9.32833
ですけれども	-9.32897
何が	-9.33074
入り	-9.33083
毎日	-9.33174
魚	-9.3338
▁do	-9.33383
けどね	-9.33444
作る	-9.33479
っと	-9.33522
かもしれません	-9.33556
気が	-9.33597
普通	-9.33627
宮	-9.33771
ではなく	-9.33836
電話	-9.33905
なります	-9.3397
▁no	-9.33974
んだから	-9.34004
ページ	-9.34126
草	-9.34356
夜	-9.34404
したり	-9.3441
作り	-9.34414
王	-9.34612
人も	-9.3463
t	-9.34688
になり	-9.34701
中の	-9.34723
期待	-9.34728
月の	-9.34794
家の	-9.34859
k	-9.34921
さー	-9.34926
商品	-9.34941
サイト	-9.34952
ですねまぁ	-9.34958
角	-9.34995
になっています	-9.35037
ピ	-9.35077
親	-9.35146
よし	-9.35165
運動	-9.35252
ひ	-9.35263
n	-9.35346
後ろ	-9.35485
出てくる	-9.35532
が多い	-9.35546
わけ	-9.35553
ダウン	-9.35575
今日の	-9.35708
ということですね	-9.35739
計画	-9.35827
美味しい	-9.35876
19	-9.35881
ダー	-9.35892
なー	-9.35902
いいですね	-9.35966
なきゃ	-9.36253
明日	-9.36258
作った	-9.36443
編	-9.36462
られて	-9.36596
しても	-9.36614
上で	-9.3666
入る	-9.36681
そこから	-9.36983
いわゆる	-9.37053
ことです	-9.37079
球	-9.37103
かけ	-9.37134
ペ	-9.37196
根	-9.37246
グループ	-9.37313
塩	-9.37332
連	-9.37474
はこの	-9.3751
準備	-9.37601
ボタン	-9.37618
ための	-9.37703
たち	-9.37759
を持っている	-9.37763
今は	-9.3783
登録	-9.37837
増	-9.3789
図	-9.37936
しよう	-9.3797
壁	-9.38088
23	-9.38134
べき	-9.38162
しません	-9.38367
試験	-9.3841
コース	-9.38494
再	-9.38645
氏	-9.38713
酒	-9.38718
撮影	-9.3879
嘘	-9.38826
すでに	-9.38902
計算	-9.39029
かっこいい	-9.39041
時の	-9.39069
終わり	-9.39083
恋	-9.3909
ギ	-9.39115
ところに	-9.39183
理解	-9.3923
マーク	-9.39359
テレビ	-9.39387
すること	-9.39413
はちょっと	-9.39424
ると	-9.3944
間に	-9.39503
マジで	-9.39593
柄	-9.39729
▁私たちは	-9.39779
箱	-9.3979
ってこと	-9.39949
いるので	-9.39959
ヒ	-9.39969
び	-9.40169
センター	-9.40181
レース	-9.40383
注意	-9.40488
f	-9.40511
使い	-9.40512
まま	-9.40533
ロック	-9.40542
街	-9.4073
席	-9.40752
いいよ	-9.40802
使える	-9.40839
を見	-9.40853
ロス	-9.40922
率	-9.41064
出し	-9.41082
そういうこと	-9.41082
▁さて	-9.41118
あれば	-9.41189
なんだよ	-9.41253
上の	-9.41271
ポ	-9.41359
さんと	-9.4141
チャ	-9.41442
まああの	-9.41479
フル	-9.4148
ニー	-9.41496
指	-9.41526
サン	-9.41602
ちゃって	-9.41605
そこまで	-9.41628
たん	-9.4163
員	-9.41761
放送	-9.41777
ますよね	-9.4179
通	-9.41958
どうしても	-9.4205
ゴール	-9.4207
入	-9.42073
可能	-9.42147
いいね	-9.4219
ベル	-9.42305
あなたに	-9.42408
ますか	-9.42431
確認	-9.42548
くれた	-9.42587
明	-9.42607
コーナー	-9.42619
なければ	-9.42643
14	-9.42653
強く	-9.42654
僕も	-9.42659
いたします	-9.42685
春	-9.42764
思って	-9.42819
ニュース	-9.42844
なんですけども	-9.42874
22	-9.42906
かわいい	-9.42934
参加	-9.42955
止め	-9.43075
かなと思います	-9.43084
けれど	-9.43121
経済	-9.4315
文化	-9.43313
にとって	-9.43319
常に	-9.43361
れて	-9.43426
人と	-9.43433
▁l	-9.43456
際	-9.43507
いいか	-9.43598
リン	-9.43605
すっ	-9.43624
じゃないか	-9.43751
処理	-9.43757
あたり	-9.43796
死	-9.43819
ねもう	-9.43864
さんに	-9.43891
▁x	-9.44054
節	-9.44059
だが	-9.44197
200	-9.44389
釣り	-9.44424
切って	-9.44469
となる	-9.44476
相手	-9.4452
当然	-9.44537
料理	-9.44589
ナー	-9.44605
多	-9.44612
と同じ	-9.44652
の中	-9.44654
反応	-9.44742
メール	-9.44758
次に	-9.44817
私を	-9.44826
形で	-9.44839
近い	-9.44915
ていく	-9.44968
h	-9.4506
もいい	-9.45066
アプリ	-9.45147
に対する	-9.45205
聞いた	-9.45258
ここの	-9.45374
ちょっとね	-9.45378
でこの	-9.45478
分の	-9.45507
きます	-9.45519
妻	-9.45582
運	-9.45674
▁やっぱ	-9.45744
文字	-9.45815
ないから	-9.45828
思います	-9.45858
中国	-9.45887
&	-9.45908
amp	-9.46016
不安	-9.46028
心配	-9.46067
いつ	-9.46072
であの	-9.46242
はぁ	-9.46317
きっと	-9.4634
高校	-9.46382
買う	-9.46407
デザイン	-9.46466
500	-9.46524
かというと	-9.4655
リーダー	-9.46578
予定	-9.46582
▁あと	-9.46617
▁you	-9.46662
者の	-9.46814
能力	-9.46841
最高	-9.46889
のところ	-9.46894
マジ	-9.46906
内容	-9.4698
毛	-9.46991
▁o	-9.47085
スーパー	-9.47133
とかで	-9.47204
ありました	-9.47363
みたいな感じ	-9.47404
お話	-9.47433
最も	-9.47509
決定	-9.4754
やん	-9.47598
月に	-9.476
が入って	-9.47701
つく	-9.47808
どのように	-9.47817
と言って	-9.47872
それも	-9.47877
といった	-9.47989
正しい	-9.48033
ゆっくり	-9.48135
だと思う	-9.48212
などの	-9.48223
事件	-9.48224
▁今日	-9.48262
肉	-9.48324
▁yeah	-9.48358
▁彼は	-9.48409
色々	-9.48422
▁今回は	-9.48428
入ってる	-9.48436
安い	-9.48448
っていうの	-9.48459
卵	-9.48577
古い	-9.48595
死ぬ	-9.48603
打って	-9.48711
ケース	-9.48746
このような	-9.48752
人気	-9.48761
ぱ	-9.48764
読み	-9.48799
ぶ	-9.48841
普通の	-9.48891
ファ	-9.48893
弱	-9.48983
つけて	-9.48994
腰	-9.49174
週間	-9.49204
側	-9.49318
▁うーん	-9.4932
▁h	-9.49418
てください	-9.49435
誰も	-9.49683
はその	-9.49692
読んで	-9.49823
動く	-9.49947
どっち	-9.50072
変	-9.50129
▁w	-9.50235
松	-9.50248
健康	-9.50257
メーカー	-9.50273
昔	-9.50298
家に	-9.50322
展開	-9.50387
かけて	-9.50643
ですので	-9.50747
葉	-9.50798
選択	-9.50816
後で	-9.50823
来る	-9.50848
額	-9.51066
みたいに	-9.5109
において	-9.51107
全く	-9.51217
安全	-9.51252
であれば	-9.51326
身	-9.51431
のみ	-9.51624
;	-9.51634
なきゃいけない	-9.51702
げ	-9.51709
すぎる	-9.51784
うち	-9.5186
変化	-9.51927
がありました	-9.521
印象	-9.52119
現在	-9.52197
打ち	-9.52202
武器	-9.52257
有	-9.5243
合う	-9.52517
上げて	-9.52555
一人で	-9.52572
人生	-9.5262
つい	-9.52636
怖い	-9.52741
60	-9.52799
人で	-9.52885
完全に	-9.5295
y	-9.53222
紙	-9.53239
コード	-9.53401
存在	-9.53429
判断	-9.53443
やりたい	-9.5353
ほら	-9.53594
すぎて	-9.53614
販売	-9.5368
出して	-9.53696
体験	-9.53708
戦争	-9.53709
ビジネス	-9.53826
ぎ	-9.53958
のです	-9.53971
どうやって	-9.54051
帰って	-9.54124
落ち	-9.54184
俺が	-9.54207
小さい	-9.5426
対策	-9.54293
ルー	-9.54362
回復	-9.54376
▁第	-9.54425
ですねはい	-9.54438
近く	-9.54653
シート	-9.54683
ゼロ	-9.54685
トン	-9.54768
鳥	-9.54854
公開	-9.54871
ことによって	-9.5493
差	-9.54954
公	-9.54957
取る	-9.54959
やっ	-9.54963
ないか	-9.55058
テーマ	-9.55072
ちょ	-9.55074
上げ	-9.55079
選挙	-9.5512
付け	-9.55244
したいと思います	-9.5526
自	-9.55359
が一番	-9.55379
んじゃないか	-9.5542
調整	-9.55435
▁v	-9.55466
半	-9.55484
ということが	-9.55565
発表	-9.5557
言ってる	-9.556
和	-9.55634
番組	-9.55667
だか	-9.557
園	-9.55791
かね	-9.55841
17	-9.5588
▁えっと	-9.55945
種類	-9.55953
ばかり	-9.55996
操作	-9.56107
血	-9.56167
目的	-9.56194
素	-9.56255
テスト	-9.56264
ミス	-9.56292
チャンス	-9.56294
▁私たちが	-9.56328
持っている	-9.56387
相談	-9.5639
チャー	-9.56538
民	-9.56609
アウト	-9.56627
ワ	-9.56655
下に	-9.56751
していきます	-9.56771
ダメージ	-9.56822
ここが	-9.56845
腕	-9.56934
ライト	-9.5695
両	-9.56989
構造	-9.57024
便	-9.57071
縁	-9.5713
ましたね	-9.57196
方がいい	-9.57202
を持っています	-9.57252
支援	-9.57261
300	-9.57299
負け	-9.573
いくら	-9.57309
なさい	-9.57321
絵	-9.57323
友達	-9.57345
みなさん	-9.57348
ドル	-9.5739
ますけど	-9.57411
厳しい	-9.57442
r	-9.57538
嫌	-9.57549
乗って	-9.57569
シリーズ	-9.57642
たいと思います	-9.57695
だっ	-9.57721
やろう	-9.57727
により	-9.57767
瞬間	-9.57779
器	-9.57783
直接	-9.57814
ないように	-9.57877
兄	-9.57915
銀	-9.5793
もない	-9.5795
表現	-9.57992
距離	-9.58004
やら	-9.58006
成長	-9.58083
飲んで	-9.5811
に行って	-9.58128
ノー	-9.58236
まし	-9.58252
.	-9.58274
追加	-9.58326
80	-9.58385
ジャ	-9.58451
まっ	-9.58611
もともと	-9.58715
広い	-9.58723
▁それ	-9.58739
者が	-9.58776
客	-9.58778
あれは	-9.58791
勝ち	-9.58797
ブルー	-9.58867
お願い	-9.59025
バン	-9.59094
病	-9.59111
人を	-9.59151
ようです	-9.59223
もらう	-9.59229
まさに	-9.59233
そっち	-9.59307
正直	-9.59309
的には	-9.5933
ホ	-9.59351
遊び	-9.59408
質	-9.59458
敵	-9.59463
次は	-9.59473
ルール	-9.59485
今後	-9.59543
メンバー	-9.59567
韓国	-9.59575
章	-9.59618
昨日	-9.59653
白い	-9.59683
x	-9.59727
の方は	-9.59825
製品	-9.59839
つか	-9.5988
▁今回	-9.59896
しっかりと	-9.59961
政治	-9.59981
クラブ	-9.59991
ますので	-9.60074
と言います	-9.60092
ぽ	-9.60232
は何	-9.60256
そもそも	-9.60304
だけです	-9.60321
今度は	-9.60382
ドン	-9.60493
アー	-9.60518
ぼ	-9.60548
俺の	-9.60654
得	-9.60746
だいぶ	-9.60906
▁ここで	-9.60957
坂	-9.60971
監督	-9.60976
元気	-9.60984
とした	-9.61029
シャ	-9.61067
男性	-9.61074
尾	-9.61079
と思い	-9.61144
彼らが	-9.61194
ないけど	-9.61373
なお	-9.61473
ドア	-9.61508
おかしい	-9.61579
キャラクター	-9.6162
ないよ	-9.61634
言うと	-9.61654
画面	-9.61761
森	-9.61789
いただきます	-9.6179
相当	-9.61882
込み	-9.619
んでしょ	-9.61915
ガン	-9.61987
に関する	-9.61988
ぐらいの	-9.6202
あっはぁ	-9.62037
みてください	-9.62039
知って	-9.62042
路	-9.62051
エネルギー	-9.62108
英語	-9.62157
猫の	-9.62188
急	-9.62213
まーす	-9.62276
タイム	-9.62389
なくなる	-9.6239
あげる	-9.62427
穴	-9.62433
産	-9.62435
わけですよ	-9.6245
傷	-9.62457
低	-9.62461
もらった	-9.62463
エリア	-9.6248
残	-9.62511
命	-9.62544
メートル	-9.62578
社長	-9.62623
コレ	-9.62731
ヶ月	-9.62735
早速	-9.62813
ものは	-9.62956
話を	-9.63006
五	-9.63068
政府	-9.63072
ときは	-9.63091
▁その後	-9.63173
夫	-9.6319
プレー	-9.63231
利用	-9.63248
寺	-9.63258
立ち	-9.63302
ロン	-9.63344
カバー	-9.63345
姫	-9.63385
少ない	-9.6343
相	-9.63437
業	-9.63444
今から	-9.63531
i	-9.63625
基本	-9.63765
▁me	-9.63855
ぷ	-9.63866
必要があります	-9.63881
たぶん	-9.63892
ですねこれ	-9.63905
まり	-9.63921
でその	-9.63964
一つの	-9.64019
緑	-9.64142
というところ	-9.6418
誰が	-9.6421
今日も	-9.64238
全員	-9.64291
するか	-9.64418
になると	-9.64449
続いて	-9.64476
世	-9.64483
鉄	-9.64593
タン	-9.64598
ぴ	-9.64655
いたら	-9.64681
彼女は	-9.64731
権	-9.64845
成功	-9.64871
胸	-9.64897
クリア	-9.64925
端	-9.64961
スペース	-9.65002
1000	-9.65084
好	-9.65111
言え	-9.65159
十分	-9.65236
タイ	-9.65334
モード	-9.6543
24	-9.65516
総	-9.65526
脳	-9.65552
だなぁ	-9.65575
さんも	-9.65632
太	-9.65651
はまだ	-9.65656
プラ	-9.65676
いらっしゃる	-9.65677
▁7	-9.65699
することができます	-9.65713
課題	-9.65788
ブロック	-9.65868
であった	-9.65885
売り	-9.65892
門	-9.65947
カット	-9.65963
を取り	-9.66019
気に	-9.66042
雲	-9.66052
ということになります	-9.6608
教	-9.661
▁それから	-9.66114
考える	-9.66143
の問題	-9.66164
メディア	-9.66208
ビデオ	-9.66322
父	-9.66483
んっ	-9.66511
の場合	-9.66538
スポーツ	-9.66558
ちなみに	-9.6663
を入れて	-9.66635
そんなこと	-9.66742
ベース	-9.66824
歯	-9.66831
てきた	-9.67104
込んで	-9.67115
自然	-9.67156
してきた	-9.67177
というような	-9.67181
ファー	-9.6723
▁これが	-9.67248
治療	-9.67256
賞	-9.67331
さえ	-9.67334
v	-9.67388
なくても	-9.67422
予想	-9.67424
ないんですよ	-9.6744
ある程度	-9.67467
を見る	-9.67725
制度	-9.67786
事故	-9.67916
アイテム	-9.68026
州	-9.6809
回転	-9.68117
ああいう	-9.68127
つけ	-9.68133
今度	-9.6822
こういうふうに	-9.68228
方向	-9.68259
窓	-9.68262
末	-9.68294
団	-9.683
めちゃめちゃ	-9.68314
長く	-9.68357
モン	-9.68396
みて	-9.6844
さぁ	-9.6847
w	-9.68501
目標	-9.68515
ジュ	-9.68517
ことも	-9.68574
女の子	-9.68673
数字	-9.68675
施設	-9.68698
成	-9.68778
影響	-9.68929
是非	-9.69098
70	-9.69128
だとか	-9.69206
らー	-9.69209
なんだろう	-9.69231
サイズ	-9.69264
感じで	-9.69279
もあります	-9.69288
かける	-9.69382
羽	-9.69458
買い	-9.6954
音が	-9.69575
ですからね	-9.69644
オン	-9.69732
ぺ	-9.69934
のことを	-9.69969
たくさんの	-9.70026
バージョン	-9.70042
当時	-9.70045
▁in	-9.70075
もう少し	-9.7017
早	-9.70189
こんなに	-9.70323
ショー	-9.7041
投資	-9.70426
んだったら	-9.70427
再び	-9.70478
層	-9.70482
匹	-9.70484
級	-9.70489
生産	-9.70492
取って	-9.70547
なし	-9.7055
ろう	-9.70553
簡単	-9.70583
何でも	-9.7062
もしかしたら	-9.7063
してくれる	-9.70642
してい	-9.70668
有名な	-9.70726
ソン	-9.70748
ちょっと待って	-9.70753
できて	-9.70868
一般	-9.70874
言ったら	-9.70891
条件	-9.70998
重要な	-9.71052
宇宙	-9.71132
終わった	-9.71172
ねその	-9.7119
程度	-9.71218
他	-9.71248
わけで	-9.71265
終了	-9.7139
部屋	-9.71485
おいしい	-9.71486
ねまぁ	-9.71498
方に	-9.71531
肌	-9.71572
そこの	-9.7161
上がって	-9.71614
自由	-9.71621
にくい	-9.71656
もう一度	-9.71703
そのような	-9.71733
バンド	-9.7176
回目	-9.71771
を受け	-9.71794
ラジオ	-9.71806
っていうのも	-9.71832
油	-9.71834
秋	-9.71837
古	-9.71864
解説	-9.71906
時間が	-9.71974
21	-9.71977
どこに	-9.71994
腹	-9.72009
ヘッド	-9.72019
ヌー	-9.72032
想像	-9.72072
牛	-9.72142
感謝	-9.72204
バイ	-9.72222
90	-9.72249
運転	-9.72259
映像	-9.72307
そこは	-9.72347
アイ	-9.72445
旅行	-9.72457
っていうことで	-9.72506
レス	-9.72554
打つ	-9.7256
わかった	-9.72645
個人	-9.72736
のですが	-9.72765
たくない	-9.72766
分かる	-9.72846
ものです	-9.7287
このまま	-9.73022
まー	-9.73046
ってる	-9.73252
実験	-9.73277
始めた	-9.73292
ないので	-9.73353
シュ	-9.73372
以降	-9.73414
たんですけど	-9.73418
湯	-9.73449
ワーク	-9.73464
▁いう	-9.73577
感覚	-9.73578
耳	-9.73607
企画	-9.73613
兵	-9.73681
アート	-9.73698
らない	-9.73713
大阪	-9.73807
反対	-9.73808
サポート	-9.73814
半分	-9.73862
ゆ	-9.73869
こんな感じで	-9.73885
明らかに	-9.73949
パティ	-9.73971
お店	-9.74059
行為	-9.74096
ホーム	-9.74097
▁それが	-9.74113
ジョン	-9.742
かかる	-9.74213
砂	-9.74234
計	-9.74254
ジェ	-9.74281
重要	-9.74336
代表	-9.74389
こんな感じ	-9.7442
香	-9.7445
我々	-9.74487
書く	-9.74491
見てる	-9.74496
ボス	-9.74609
クラス	-9.74673
首	-9.74675
どうか	-9.74685
合わせ	-9.74696
交換	-9.74729
平和	-9.74753
サイド	-9.74764
▁これで	-9.74846
ませ	-9.74906
だぞ	-9.74918
あん	-9.75002
オフ	-9.75063
皆さんに	-9.75073
合	-9.75114
深い	-9.75118
日の	-9.75261
あなたを	-9.75272
へと	-9.75363
やー	-9.75385
いき	-9.75403
▁私たちの	-9.75418
込む	-9.75433
まだまだ	-9.75449
ジャンプ	-9.75453
ザー	-9.75502
けども	-9.75515
以下	-9.75585
来ない	-9.75595
ゲー	-9.75623
いきたい	-9.75636
美しい	-9.75716
知ってる	-9.75742
▁つまり	-9.75805
ざ	-9.75836
報告	-9.75847
チャンネル登録	-9.75876
っていうね	-9.75904
いれば	-9.75914
編集	-9.75914
全て	-9.75938
未来	-9.7599
議論	-9.76039
▁ここ	-9.76061
病気	-9.76063
みました	-9.76078
押し	-9.76101
マイ	-9.76131
みんなで	-9.76137
のための	-9.76145
プロジェクト	-9.762
設計	-9.76342
いくつか	-9.76405
こちらは	-9.76544
▁う	-9.76555
安定	-9.76637
市場	-9.7668
失敗	-9.76681
希望	-9.76693
津	-9.76743
応援	-9.76802
を使う	-9.76822
さっきの	-9.76884
見え	-9.76902
パーティー	-9.76914
▁まぁ	-9.76923
ファイル	-9.76944
そうだね	-9.76958
時期	-9.76992
費	-9.76997
戦い	-9.7702
この後	-9.77029
がちょっと	-9.77052
メイン	-9.77117
バーン	-9.77128
画像	-9.7716
これだけ	-9.7731
リス	-9.77311
リスク	-9.77347
第一	-9.77359
というもの	-9.77414
振り	-9.77461
方も	-9.77509
影	-9.77513
勝負	-9.77524
定	-9.77639
千	-9.77729
みると	-9.7776
んでね	-9.77784
いただいた	-9.77795
になってる	-9.7784
って言った	-9.77846
虫	-9.77849
の部分	-9.77887
神様	-9.77924
ルート	-9.77989
バッグ	-9.78012
見えない	-9.78105
八	-9.78107
幅	-9.78135
価格	-9.78143
達	-9.78183
ております	-9.78229
っていうところ	-9.78315
ったら	-9.7834
ヌ	-9.78342
なっ	-9.78347
分析	-9.78353
床	-9.78367
幸せ	-9.78385
これまで	-9.78395
制	-9.78475
瀬	-9.78483
▁皆さん	-9.7854
▁彼らは	-9.78565
確か	-9.7861
▁そうですね	-9.78631
国家	-9.78637
記憶	-9.78652
速	-9.7867
大会	-9.7874
の間	-9.78789
にゃん	-9.78822
せて	-9.78896
一緒	-9.78945
▁次に	-9.79026
が出る	-9.79043
なんかこう	-9.79072
って感じ	-9.79106
列	-9.79153
訳	-9.79158
ワン	-9.79189
▁web	-9.79396
どうも	-9.79485
に向かって	-9.79514
中央	-9.79575
結婚	-9.79702
大丈夫です	-9.79707
ホテル	-9.79714
開く	-9.79727
ヘ	-9.79745
ならない	-9.79747
いけ	-9.7975
▁うん	-9.79783
範囲	-9.79812
開始	-9.79826
変更	-9.79853
抜け	-9.79888
ーっ	-9.79913
弱い	-9.79916
案	-9.79932
立って	-9.79943
強化	-9.79951
あら	-9.79999
一体	-9.80008
事実	-9.8001
絶対に	-9.80154
教えて	-9.80183
カン	-9.80191
があるので	-9.80214
雰囲気	-9.80277
道路	-9.80318
鍵	-9.80341
低い	-9.80426
運営	-9.80467
てくる	-9.80489
必要な	-9.80571
うっ	-9.80604
そうすると	-9.80647
ならば	-9.80724
先輩	-9.80726
あるんですけど	-9.80785
ご紹介	-9.80827
ビール	-9.80833
センチ	-9.80837
期間	-9.80854
ヨ	-9.80859
を持つ	-9.80876
および	-9.80895
組織	-9.80896
医療	-9.80914
経営	-9.80954
ブランド	-9.8096
いいですか	-9.80977
られない	-9.81019
いただく	-9.81075
35	-9.81091
やっと	-9.8111
岩	-9.81194
現実	-9.81304
英	-9.81309
当	-9.81417
プログラム	-9.81422
リスト	-9.81432
ロード	-9.81482
があれば	-9.81502
発生	-9.81504
覚え	-9.81525
残り	-9.81602
助け	-9.81609
基本的に	-9.81635
いただきたい	-9.81779
完成	-9.8181
大臣	-9.81839
宿	-9.81889
るんですけど	-9.81945
ギター	-9.81953
がですね	-9.81966
歴史	-9.81982
ソース	-9.81988
入れる	-9.82004
よっ	-9.82053
しまって	-9.82058
構成	-9.82163
カフェ	-9.82268
痛い	-9.82337
いると	-9.82341
使った	-9.82375
どうして	-9.82444
彼らの	-9.82456
ぶり	-9.8246
てぃ	-9.82661
書き	-9.82671
彼ら	-9.82709
と思うので	-9.82729
を通して	-9.8273
対象	-9.82752
みた	-9.8279
いきたいとおもいます	-9.82795
合い	-9.82799
すげー	-9.82833
とまぁ	-9.82836
わかんない	-9.82876
知っている	-9.83
今年	-9.83049
病院	-9.83091
というわけで	-9.83096
いいいい	-9.83149
感情	-9.83157
家で	-9.83173
子さん	-9.8319
送	-9.83205
言えば	-9.83208
むしろ	-9.83234
行こう	-9.83236
人たち	-9.83283
をしている	-9.83316
某	-9.83328
士	-9.83379
リンク	-9.83417
上から	-9.83418
ポン	-9.8342
手を	-9.83446
▁特に	-9.83458
の時に	-9.83565
段	-9.83572
吉	-9.83656
細	-9.83659
後半	-9.83676
エル	-9.83677
れない	-9.83691
まぁちょっと	-9.8375
キング	-9.83773
ママ	-9.83791
できれば	-9.83823
オープン	-9.83857
逃げ	-9.83909
覚えて	-9.83917
全体	-9.83921
切る	-9.83925
俺も	-9.83933
記事	-9.83952
はいはい	-9.83968
会議	-9.84019
ジャン	-9.8402
フリー	-9.84079
レイ	-9.84096
に入る	-9.84167
若干	-9.84212
電	-9.84213
遠い	-9.84216
底	-9.84237
京都	-9.84237
終わって	-9.84274
バカ	-9.84374
っちゃ	-9.84379
週	-9.84395
決め	-9.84416
字	-9.84449
上がる	-9.84576
ビル	-9.84585
そうで	-9.8459
投げ	-9.84617
ねこの	-9.84664
ずつ	-9.84667
といえば	-9.84725
意見	-9.84747
ゲ	-9.84801
針	-9.84815
フィ	-9.84823
▁いい	-9.84827
ウェイ	-9.84866
議員	-9.84903
ショット	-9.84922
エンジン	-9.8495
持ってる	-9.85006
スタイル	-9.85036
そろそろ	-9.85058
出てきた	-9.85068
しちゃう	-9.85071
棒	-9.85092
▁ア	-9.85102
飛び	-9.8512
関連	-9.85158
やったら	-9.85161
てしまう	-9.85199
考え方	-9.85289
an	-9.85314
本当の	-9.85328
万人	-9.85344
は今	-9.85371
さまざまな	-9.85448
C	-9.85492
段階	-9.85501
ご覧	-9.85545
▁q	-9.85568
タイミング	-9.85589
保	-9.85611
江	-9.85656
バイク	-9.85678
浜	-9.85693
師	-9.85721
思い出	-9.85742
たかった	-9.85831
▁new	-9.85942
株	-9.85979
ベッド	-9.86005
配	-9.86069
付き	-9.86098
してます	-9.86183
がいる	-9.86287
堂	-9.86335
l	-9.86405
霊	-9.86407
のもの	-9.86409
ここを	-9.86428
だったので	-9.86436
選んで	-9.86447
目に	-9.86497
となります	-9.86574
居	-9.86588
ドラ	-9.86665
知識	-9.86685
思った	-9.86703
軸	-9.86727
がね	-9.86796
2000	-9.86811
が出て	-9.86885
大事な	-9.86888
を出して	-9.86891
走って	-9.8695
利益	-9.86958
なっちゃう	-9.86959
彼に	-9.86995
実行	-9.87017
とかですね	-9.87028
みましょう	-9.87045
公園	-9.87101
ブーブー	-9.8713
工場	-9.87155
であります	-9.87163
利	-9.87164
▁多分	-9.87173
赤ちゃん	-9.8718
林	-9.87226
装備	-9.87276
屋さん	-9.8728
電気	-9.87347
あったら	-9.87381
パイ	-9.87403
条	-9.87449
業界	-9.8745
つける	-9.87475
アル	-9.87498
行っ	-9.8751
もらえる	-9.87547
購入	-9.87557
の一つ	-9.87572
つつ	-9.87645
なのに	-9.87665
法律	-9.87672
いただきました	-9.87681
杯	-9.87728
認識	-9.8773
サッカー	-9.87798
剤	-9.87812
若い	-9.87861
日本語	-9.8788
ブログ	-9.87891
用の	-9.87927
院	-9.87991
子が	-9.87992
ミー	-9.88088
軽く	-9.88101
生まれ	-9.88106
どれ	-9.88126
死んだ	-9.88191
あんた	-9.88213
ないといけない	-9.88379
目の	-9.88424
▁na	-9.88441
という風に	-9.88453
それじゃあ	-9.88467
靴	-9.88474
たく	-9.88499
罪	-9.88513
一生懸命	-9.88564
立つ	-9.88634
常	-9.88643
国際	-9.88685
要素	-9.88695
それらの	-9.887
学生	-9.88745
資料	-9.8875
▁日本	-9.88786
知	-9.88787
過ぎ	-9.88847
はーい	-9.88847
▁僕は	-9.88863
ちょい	-9.88885
気がする	-9.88896
術	-9.88897
もう一つ	-9.88902
ご飯	-9.88905
さーん	-9.89017
検査	-9.89121
十	-9.89153
ばっかり	-9.8916
クリ	-9.89165
言います	-9.89203
協力	-9.89221
の日	-9.89262
甘い	-9.89267
予算	-9.89307
優勝	-9.89323
たりとか	-9.89333
ショップ	-9.89333
走	-9.89334
っていう感じ	-9.89344
っっ	-9.89365
になっちゃう	-9.89429
戸	-9.8948
?。	-9.89525
でしたね	-9.8959
決して	-9.89592
そうですよね	-9.89606
様々な	-9.89682
最大	-9.89714
細胞	-9.89714
書いた	-9.89762
コントロール	-9.89765
▁これを	-9.89778
苦労	-9.89801
素材	-9.8988
たちが	-9.89919
極	-9.89952
をした	-9.8999
赤い	-9.9002
言っ	-9.90125
仕事を	-9.90133
変な	-9.9017
当たり	-9.90263
地下	-9.90283
マスター	-9.90312
をつけて	-9.90314
力を	-9.90319
再生	-9.90455
▁こんにちは	-9.90501
ブラ	-9.90526
が高い	-9.90566
あげ	-9.90605
の場合は	-9.90643
言われ	-9.90695
ツアー	-9.907
ですはい	-9.90701
彼女	-9.9071
反	-9.90752
と思ったら	-9.90756
解決	-9.90875
肩	-9.91002
コーヒー	-9.91013
うわぁ	-9.91033
授業	-9.91049
が違う	-9.91059
ラーメン	-9.91133
割と	-9.91179
ないです	-9.91191
改善	-9.91228
動物	-9.91264
メイク	-9.91281
生き	-9.91365
契約	-9.91368
をとって	-9.91422
者は	-9.91478
しろ	-9.91486
ええええ	-9.91524
いきなり	-9.91625
▁とりあえず	-9.91664
エン	-9.91694
第二	-9.91752
するのは	-9.91767
ケア	-9.91788
本当は	-9.91827
向こう	-9.91832
すべき	-9.9186
歩いて	-9.91903
乗り	-9.91921
官	-9.91962
かつ	-9.91963
どうですか	-9.91996
ランド	-9.92017
建物	-9.92037
日本人	-9.92052
電車	-9.92065
の子	-9.92071
ばいい	-9.92084
一気に	-9.92096
奥	-9.92111
原因	-9.92114
あげて	-9.92127
しばらく	-9.92131
の世界	-9.92144
なんですか	-9.92182
言える	-9.92249
よろしくお願い致します	-9.92337
経	-9.92376
芸	-9.92409
自分は	-9.92495
でもう	-9.92522
ツール	-9.92552
▁0	-9.926
ガス	-9.92612
▁こんな	-9.92622
のほう	-9.92624
ええと	-9.92695
表示	-9.92758
すいません	-9.92763
女子	-9.92767
だねぇ	-9.92778
約束	-9.9293
▁ana	-9.92974
速度	-9.9299
満	-9.93106
ジー	-9.93116
土地	-9.9316
S	-9.93217
ごめんなさい	-9.93259
P	-9.93297
辛い	-9.93305
ねまあ	-9.93313
気になる	-9.93317
▁ぜひ	-9.93349
方を	-9.93369
系の	-9.93386
億	-9.9339
ないんですけど	-9.93426
持った	-9.93439
見たい	-9.93496
ライ	-9.93545
よろしく	-9.93625
▁まだ	-9.93676
空間	-9.93686
が必要	-9.93697
みたいな感じで	-9.937
後は	-9.93724
楽しく	-9.9373
やろ	-9.93771
ステージ	-9.938
局	-9.93806
周	-9.93861
ハン	-9.93947
るんですよ	-9.93953
いただければ	-9.93985
バランス	-9.93991
それこそ	-9.94021
お客さん	-9.9403
検索	-9.94038
袋	-9.94045
というのを	-9.94072
マル	-9.94082
くれて	-9.94084
人々	-9.94098
ジョ	-9.94137
うちの	-9.94145
ブル	-9.94165
ドイツ	-9.94196
クロス	-9.94249
られている	-9.94254
世代	-9.943
ネタ	-9.94386
▁そうすると	-9.94398
飛んで	-9.94401
スタッフ	-9.94419
ユ	-9.94453
なりました	-9.94457
みる	-9.94502
限り	-9.94525
ティー	-9.94594
にする	-9.94651
これはもう	-9.94654
敗	-9.94677
アクション	-9.94688
旅	-9.94692
カーン	-9.94719
筋	-9.94752
状態で	-9.94783
つき	-9.94952
ございました	-9.95039
変わった	-9.95085
方の	-9.95096
位置	-9.95137
わかって	-9.9521
タイトル	-9.95233
楽しみ	-9.95247
世界の	-9.95262
パック	-9.953
なぜか	-9.95306
と呼ばれる	-9.95378
▁最近	-9.954
グラ	-9.95428
固定	-9.95472
プレゼント	-9.95476
精神	-9.95536
続ける	-9.95549
提供	-9.95558
ゼ	-9.95571
板	-9.95574
近	-9.95598
力が	-9.956
▁水	-9.95623
指定	-9.95693
ではなくて	-9.95695
勝利	-9.95771
海外	-9.95784
番目	-9.95804
貼って	-9.95822
投稿	-9.95868
ユーザー	-9.95881
一部	-9.95887
ねそう	-9.95912
都市	-9.9592
舞台	-9.95942
抜き	-9.95963
続けて	-9.96043
興味	-9.96053
努力	-9.96061
あのまあ	-9.96069
オー	-9.96101
最終	-9.96184
を取る	-9.96187
像	-9.96204
いつか	-9.96252
皆様	-9.96252
はあの	-9.96307
カップ	-9.96357
なかったら	-9.96402
を行う	-9.96436
製	-9.96457
里	-9.9646
▁実は	-9.96473
合わせて	-9.96533
地球	-9.96579
ット	-9.96596
値段	-9.96597
を作って	-9.96623
ればいい	-9.96642
時から	-9.96675
前回	-9.96684
カレー	-9.96698
ビー	-9.96737
よー	-9.96804
恐れ	-9.9681
アメリカの	-9.96851
娘	-9.96991
してない	-9.96991
体の	-9.97005
ええええええ	-9.97109
きれい	-9.97122
やれ	-9.97137
たので	-9.97212
▁もし	-9.97226
ボックス	-9.97233
えええ	-9.97308
の方で	-9.97311
込んだ	-9.97318
ないんで	-9.97357
▁ni	-9.97367
髪	-9.97432
はこれ	-9.97475
機会	-9.9755
に来て	-9.97569
現場	-9.97588
んですけどね	-9.97594
なこと	-9.97651
ハウス	-9.97666
レン	-9.97672
料	-9.97684
進化	-9.97692
45	-9.9771
乳	-9.97816
野菜	-9.9789
のところに	-9.97922
危険	-9.98001
ところは	-9.98001
A	-9.98007
っち	-9.98034
短い	-9.98114
当たり前	-9.98119
まる	-9.9813
普段	-9.9817
かって	-9.98175
▁ブービー	-9.98189
始めて	-9.98257
始め	-9.98259
下の	-9.98266
向き	-9.98287
きちんと	-9.9829
チーズ	-9.98308
科	-9.98309
教え	-9.9831
がすごい	-9.98346
ありますね	-9.98347
転	-9.98364
国民	-9.98395
綺麗な	-9.98421
変わる	-9.98447
向け	-9.98466
素敵な	-9.9852
デイ	-9.98606
させていただきます	-9.98622
この人	-9.9867
シェア	-9.98728
記録	-9.9874
話し	-9.98744
あぁ	-9.98775
あのう	-9.98781
にあります	-9.98848
意外と	-9.98925
でちょっと	-9.98926
▁俺は	-9.98935
変わって	-9.99
切れ	-9.99035
警察	-9.99096
めちゃ	-9.99105
絶	-9.99148
後ろに	-9.99154
るか	-9.99243
圧	-9.9933
植物	-9.99332
日々	-9.99423
になっております	-9.99456
だけでなく	-9.99463
損	-9.99469
トレーニング	-9.99485
がこの	-9.9949
政権	-9.99524
気分	-9.99543
ないですね	-9.9958
くっ	-9.9963
いいです	-9.99656
してた	-9.997
学習	-9.99738
ゲスト	-9.99739
うまい	-9.99751
ること	-9.99774
マップ	-9.99791
兄弟	-9.99795
するという	-9.99897
言われて	-9.99932
つもりです	-9.99988
車両	-10.0006
綺麗	-10.0011
生きて	-10.0014
歩	-10.0015
漫画	-10.0015
神の	-10.002
しないと	-10.0021
あああ	-10.0024
を受けて	-10.0025
時計	-10.0028
断	-10.0031
スピード	-10.0033
いいなぁ	-10.0033
やり方	-10.0034
言語	-10.0037
こういうこと	-10.0041
かと思います	-10.0044
だぜ	-10.0044
ですけども	-10.0048
調	-10.0051
前から	-10.0052
保険	-10.0053
カル	-10.0053
▁僕	-10.0055
に行きます	-10.0059
動いて	-10.0061
j	-10.0066
あああああ	-10.0067
久	-10.0071
に関して	-10.0073
目が	-10.0075
ストーリー	-10.0077
あえて	-10.0077
ガード	-10.0079
入力	-10.0079
と思っ	-10.0083
行きます	-10.0085
なければならない	-10.0087
ハード	-10.0088
▁一	-10.0092
ピー	-10.0096
危ない	-10.0101
▁それを	-10.0102
ないん	-10.0108
空気	-10.0109
お話を	-10.0109
大事	-10.0111
▁こういう	-10.0113
ダンス	-10.0115
基準	-10.0119
聞く	-10.0121
ラム	-10.0121
取った	-10.0126
年前	-10.0136
ませんでした	-10.0138
加工	-10.0144
年度	-10.0145
▁なるほど	-10.015
プレ	-10.0152
途中	-10.0161
広	-10.0163
フォロー	-10.0163
してくる	-10.0165
でもね	-10.0168
なくなった	-10.017
お金を	-10.0174
党	-10.0179
保存	-10.0183
わけじゃない	-10.0184
▁めっちゃ	-10.0188
戦闘	-10.0188
っちゃう	-10.0189
あんな	-10.0189
パソコン	-10.0191
相手の	-10.0199
いこう	-10.0201
鍋	-10.0204
プロセス	-10.0204
に乗って	-10.0204
食事	-10.0219
まっすぐ	-10.022
急に	-10.0223
患者	-10.0223
理	-10.0226
同時に	-10.0228
降り	-10.0229
と思っています	-10.0232
そうか	-10.0233
省	-10.0234
オーバー	-10.0237
両方	-10.0238
息	-10.0244
日間	-10.0244
張り	-10.0246
ポケモン	-10.0246
▁もちろん	-10.0252
の家	-10.0253
いくと	-10.0257
えー	-10.0261
こっちの	-10.0274
これに	-10.0277
ねやっぱり	-10.0278
でこれ	-10.029
連絡	-10.0292
発見	-10.0297
軽い	-10.0298
D	-10.03
みんなが	-10.03
とともに	-10.0303
担当	-10.0304
▁確かに	-10.0304
管	-10.0305
その時	-10.0307
飯	-10.0315
ダン	-10.0318
ああっ	-10.032
ッと	-10.0321
そこを	-10.0327
彼を	-10.0329
生きる	-10.033
感じる	-10.0334
職	-10.0336
シン	-10.0338
いうか	-10.034
のため	-10.0343
の上に	-10.0343
メッセージ	-10.0351
お母さん	-10.0355
改めて	-10.0356
族	-10.0356
動画を	-10.036
立て	-10.036
番目の	-10.0361
それだけ	-10.0361
to	-10.0362
さすがに	-10.0363
テン	-10.0371
問	-10.0374
提案	-10.0375
走り	-10.0376
要	-10.0376
年齢	-10.0376
▁we	-10.0377
な感じ	-10.0379
がその	-10.038
ずーっと	-10.0381
安心	-10.0389
の時	-10.039
んですかね	-10.039
なかっ	-10.0392
畑	-10.0396
後の	-10.0399
売って	-10.0402
クラ	-10.041
▁入って	-10.0414
薄	-10.0415
信	-10.0416
分かって	-10.0422
特徴	-10.0428
▁woo	-10.0433
間違い	-10.0435
余裕	-10.0435
筋肉	-10.0435
遅い	-10.044
バル	-10.0443
地方	-10.0444
▁何か	-10.0445
にゃ	-10.0446
るー	-10.0447
どういうこと	-10.0454
なっている	-10.046
趣味	-10.0462
シーズン	-10.0462
散	-10.0462
レー	-10.0463
焼き	-10.0467
謎	-10.047
ノート	-10.0473
は本当に	-10.0473
汚れ	-10.0475
池	-10.0478
投票	-10.0479
わけですよね	-10.0482
お話し	-10.0483
していて	-10.0484
知る	-10.0497
あるので	-10.0498
▁twitter	-10.0505
サブ	-10.0506
タッチ	-10.0511
ゴミ	-10.0522
んだって	-10.0526
▁家	-10.0527
パーツ	-10.0532
年生	-10.0534
最後まで	-10.0536
番の	-10.0539
簡単な	-10.0544
取引	-10.0549
黒い	-10.0551
それらを	-10.0552
更新	-10.0552
邪魔	-10.0557
▁あなたが	-10.0559
いろいろな	-10.0571
銀行	-10.0577
っていうふうに	-10.0579
価値	-10.0592
▁hey	-10.0593
意	-10.0594
重い	-10.0594
le	-10.0598
非	-10.0602
背景	-10.0605
国の	-10.0608
旧	-10.061
登場	-10.0612
鼻	-10.0615
ひどい	-10.0619
するための	-10.0619
コー	-10.062
防	-10.0623
蔵	-10.0631
自分に	-10.0631
るんだ	-10.0634
営業	-10.0642
見た目	-10.0644
でいい	-10.0646
エア	-10.0647
チョコ	-10.0647
具	-10.0649
どちら	-10.065
義	-10.0656
きっかけ	-10.0666
減	-10.0667
そうね	-10.067
開け	-10.067
以前	-10.067
▁彼が	-10.0675
高く	-10.0679
いいのか	-10.0681
んだね	-10.0684
注目	-10.0688
をつくって	-10.069
ブラック	-10.0692
深く	-10.0693
と思うんですけれども	-10.0699
記念	-10.0704
マスク	-10.0707
▁y	-10.071
続き	-10.0715
科学	-10.0721
進	-10.0721
したこと	-10.0727
たから	-10.0727
だー	-10.0731
こちらも	-10.0732
こうして	-10.0734
に向けて	-10.0736
主義	-10.0742
進んで	-10.0743
労働	-10.0753
家庭	-10.0757
てい	-10.0762
考えた	-10.0763
28	-10.0763
その時に	-10.0764
となった	-10.0766
汗	-10.0769
はいえー	-10.077
は非常に	-10.0776
こちらが	-10.0776
たちは	-10.0778
が来る	-10.0782
かなと	-10.0786
過去	-10.0787
開いて	-10.0788
祭	-10.0792
制限	-10.0794
とかそういう	-10.0797
はいじゃあ	-10.0798
▁そしたら	-10.0812
▁まずは	-10.0813
ダブル	-10.0819
冬	-10.083
良	-10.0835
待ち	-10.0837
聖	-10.0838
氷	-10.0838
といい	-10.0861
自己	-10.0863
温	-10.0864
毎回	-10.0866
やめ	-10.0866
活躍	-10.087
るんで	-10.0874
配置	-10.0879
をやって	-10.0879
崎	-10.0882
飲み	-10.0883
リーグ	-10.0888
解	-10.0889
それぞれの	-10.089
責任	-10.0895
チャレンジ	-10.0907
格好	-10.0907
出した	-10.0911
るん	-10.0914
この子	-10.0915
帰り	-10.0918
これね	-10.0919
行け	-10.0923
特別	-10.0927
太郎	-10.0927
願い	-10.0932
もしくは	-10.0934
何で	-10.0936
ねえっ	-10.0937
内の	-10.0938
毒	-10.0951
そしたら	-10.0953
武	-10.0954
類	-10.0954
▁ほんと	-10.0958
▁お前	-10.096
以上の	-10.0961
だったりとか	-10.0967
たんですよ	-10.0971
の人	-10.0973
ソフト	-10.0975
違って	-10.0975
言えない	-10.0976
以来	-10.0979
まとめ	-10.0979
共有	-10.0982
とその	-10.0985
るから	-10.0986
の一部	-10.0991
ゾーン	-10.0998
回り	-10.1003
T	-10.1006
まったく	-10.1006
見せ	-10.1008
パラ	-10.1009
つもり	-10.1009
と思うんですよ	-10.1012
することで	-10.1018
リード	-10.1019
に入った	-10.102
乗	-10.1024
ックス	-10.1026
この辺	-10.1027
フェ	-10.1035
はまあ	-10.1036
のでぜひ	-10.1036
上がり	-10.1037
と言った	-10.1038
▁次は	-10.1039
状	-10.1043
検討	-10.1055
地区	-10.1059
プラス	-10.1062
勢	-10.1063
鬼	-10.1067
これからも	-10.1068
コスト	-10.1071
優しい	-10.1072
話す	-10.1077
26	-10.108
お互い	-10.108
ああああああああ	-10.1081
選んだ	-10.1084
における	-10.1092
までは	-10.1096
どうする	-10.1101
遠く	-10.1112
泥	-10.1113
政策	-10.1114
▁次	-10.1114
保護	-10.1115
しているので	-10.1116
フランス	-10.1117
材料	-10.1124
▁ああああああああ	-10.1124
冊	-10.1125
将来	-10.1137
広告	-10.1137
ミニ	-10.1138
ちっちゃい	-10.114
▁いろんな	-10.1141
re	-10.1142
ペット	-10.1144
発売	-10.115
最初から	-10.1152
グレー	-10.1152
が今	-10.1152
インド	-10.1153
ステップ	-10.1153
だんだん	-10.1155
どこで	-10.1155
維持	-10.1157
ごとに	-10.1157
こんにちは	-10.116
合格	-10.1164
たまに	-10.1165
▁ええ	-10.1175
▁思います	-10.1178
港	-10.1179
特	-10.1179
通常	-10.1181
プリ	-10.1183
枠	-10.1183
薄い	-10.1185
障害	-10.1185
言われた	-10.1187
ですねちょっと	-10.1194
金額	-10.1197
とっても	-10.1204
仕様	-10.1209
下さい	-10.1215
挑戦	-10.1216
だったんですけど	-10.1221
全国	-10.1231
止めて	-10.1232
頭が	-10.1233
これら	-10.1236
なに	-10.1239
おく	-10.1243
ですけどね	-10.1245
▁なぜ	-10.1246
グリーン	-10.1255
ゲット	-10.1259
でしょうね	-10.126
er	-10.1261
▁非常に	-10.1269
ガチャ	-10.1276
ビッグ	-10.1278
何とか	-10.1279
3000	-10.1279
最初は	-10.1281
▁それで	-10.1282
続け	-10.1282
皆さんも	-10.1283
脱	-10.1286
さて	-10.129
そういうふうに	-10.129
ですねえ	-10.1292
列車	-10.1298
伝え	-10.13
ソロ	-10.13
爪	-10.1301
沿い	-10.1309
いいと思います	-10.131
ドゥ	-10.1316
当たる	-10.1317
平成	-10.1317
規制	-10.1319
してしまう	-10.1321
観光	-10.1322
_	-10.1325
介護	-10.1325
できるように	-10.1326
書いてある	-10.133
京	-10.1335
可能性	-10.1342
とする	-10.1345
ビュー	-10.1349
食い	-10.1366
四	-10.1367
ra	-10.1369
メニュー	-10.1373
最	-10.1373
妹	-10.1375
魔	-10.1376
言葉を	-10.1377
u	-10.1377
ボード	-10.1381
番号	-10.1385
が悪い	-10.1386
M	-10.1386
社員	-10.1388
いいかな	-10.1388
ウイルス	-10.1396
時には	-10.14
動作	-10.1401
姿	-10.1402
嫌い	-10.1402
開	-10.1403
樹	-10.1404
症	-10.1406
食べた	-10.1408
分からない	-10.141
セン	-10.1411
▁小	-10.1411
アナ	-10.1414
日は	-10.1417
かん	-10.1418
よな	-10.1424
させた	-10.1427
行きたい	-10.1428
角度	-10.1429
良く	-10.1434
実際の	-10.1436
する必要があります	-10.144
粉	-10.1441
永	-10.1446
体が	-10.1447
雷	-10.1463
って言ったら	-10.1466
プー	-10.1469
集中	-10.1471
いるのか	-10.1477
んじゃないかな	-10.1478
勝手に	-10.1483
ロシア	-10.1486
ーん	-10.1492
いい感じ	-10.1496
印	-10.15
すべてが	-10.1501
バラ	-10.1508
仲	-10.1511
▁同じ	-10.1514
巻き	-10.1522
▁z	-10.1527
会社の	-10.1532
竹	-10.1536
もうね	-10.1544
なくなって	-10.1545
限定	-10.1548
ことがある	-10.155
産業	-10.1551
しまして	-10.1552
▁まああの	-10.1555
まん	-10.1557
on	-10.1563
すら	-10.1565
指導	-10.1565
タイプの	-10.1568
医師	-10.157
行かない	-10.1572
温度	-10.1577
マイク	-10.1578
を与える	-10.158
ペア	-10.1581
▁ブーバーし	-10.1582
横に	-10.1584
暗い	-10.1588
ぁ	-10.1592
ほうが	-10.1595
っていう風に	-10.1596
説	-10.1598
日本で	-10.1599
きつい	-10.16
まずい	-10.16
導入	-10.1605
なもの	-10.1607
作成	-10.1607
オンライン	-10.1609
どれだけ	-10.1611
周り	-10.1611
は何ですか	-10.1612
抵抗	-10.1613
文章	-10.1616
ミリ	-10.1616
大人	-10.162
僕ら	-10.1623
が出てくる	-10.1634
椅子	-10.1634
チェ	-10.1636
戦略	-10.1639
色の	-10.1642
とっ	-10.1643
なるべく	-10.1644
ありがたい	-10.1646
まい	-10.1648
って言っ	-10.1653
なのかな	-10.1653
の形	-10.1656
平均	-10.1657
みます	-10.1657
ケーキ	-10.1663
糸	-10.1663
ヒット	-10.1663
I	-10.1668
黄色	-10.1669
去年	-10.1677
いいですよ	-10.1678
食べ物	-10.1679
正解	-10.168
ri	-10.1683
エロ	-10.1687
の前に	-10.1696
にいる	-10.1696
背中	-10.1701
人間の	-10.1704
ちー	-10.1705
開催	-10.1706
ですよねー	-10.1709
始める	-10.171
越	-10.171
呼吸	-10.1711
それと	-10.1712
トリ	-10.1716
深	-10.1717
しゃ	-10.1718
順	-10.1721
専門	-10.1732
せず	-10.1732
なんかも	-10.1738
いいん	-10.1743
27	-10.1744
ar	-10.1744
コーン	-10.1747
ハート	-10.1747
レンズ	-10.175
体を	-10.1752
異	-10.1753
以外	-10.1753
▁持っています	-10.1757
29	-10.1758
やっぱりその	-10.1759
寒い	-10.1761
変わらない	-10.1763
スマホ	-10.1763
インターネット	-10.1769
ちょっ	-10.1773
スタ	-10.1776
いざ	-10.1776
記	-10.1778
という話	-10.1778
輪	-10.178
突然	-10.1786
お父さん	-10.1786
資格	-10.1788
信頼	-10.1791
守	-10.1794
次回	-10.1794
ければ	-10.1796
痛み	-10.1797
脚	-10.1798
整備	-10.1801
も含めて	-10.1803
ック	-10.1803
自信	-10.1804
がいっぱい	-10.1811
▁今の	-10.1812
注文	-10.1814
調子	-10.1815
っても	-10.1816
うちに	-10.182
オール	-10.182
老	-10.182
得る	-10.1821
▁20	-10.1822
完全	-10.1822
マリア	-10.1823
聴いて	-10.1828
必要がある	-10.1831
んだな	-10.1832
ro	-10.1833
バイト	-10.1836
なってる	-10.1836
装置	-10.1836
拡大	-10.1837
▁え	-10.184
渡	-10.1841
難	-10.1842
出た	-10.1846
コール	-10.185
のほうが	-10.1851
破壊	-10.1853
受けて	-10.1853
失	-10.1854
時間を	-10.1856
の数	-10.1858
ピンク	-10.186
採用	-10.1862
▁あっ	-10.1863
ようになった	-10.1867
いいねぇ	-10.1872
だと思って	-10.1873
を使った	-10.1876
▁]	-10.1876
有名	-10.1877
だからね	-10.1884
を見た	-10.1885
しちゃった	-10.1885
疑問	-10.1886
北海道	-10.1887
目を	-10.1887
パリ	-10.1887
いたしました	-10.1893
軽	-10.1902
上昇	-10.1911
麺	-10.1911
領域	-10.1911
アジア	-10.1919
ダイ	-10.192
持つ	-10.1922
寝る	-10.1924
ション	-10.1929
イヤー	-10.1931
としたら	-10.1933
しやすい	-10.1937
もあり	-10.1948
治	-10.1951
生まれた	-10.1951
されてる	-10.1953
アニメ	-10.1955
もので	-10.1959
離	-10.1963
募集	-10.1964
言わない	-10.1964
一方	-10.197
会話	-10.1979
ちゃんが	-10.1981
づらい	-10.1985
フィールド	-10.1987
できません	-10.1995
やると	-10.1999
も結構	-10.2004
ないんだ	-10.2007
梅	-10.2009
性能	-10.2018
お酒	-10.2018
▁新	-10.2019
▁どんな	-10.203
▁一番	-10.2035
レッド	-10.2036
舌	-10.2037
っけ	-10.2048
合計	-10.2048
目で	-10.2051
ラップ	-10.2055
坊	-10.2055
の間に	-10.2057
▁私も	-10.2062
はいい	-10.2064
あそこ	-10.2066
▁de	-10.2067
一回	-10.2067
ナン	-10.2069
生徒	-10.207
ストレス	-10.2074
というのも	-10.2075
だけでも	-10.2081
未	-10.2083
▁みんな	-10.2085
チェーン	-10.2086
ホール	-10.2087
大統領	-10.2088
喜び	-10.2089
水を	-10.2091
源	-10.2091
新聞	-10.2092
ワー	-10.2095
掛け	-10.2104
んん	-10.2106
たりする	-10.211
落ちて	-10.2112
湖	-10.2114
どっか	-10.2115
柱	-10.2118
さま	-10.212
言わ	-10.212
佐	-10.2123
お客様	-10.213
聞き	-10.2131
中心	-10.2136
で言うと	-10.2136
ぽい	-10.2137
なんかね	-10.2138
追い	-10.2139
いただき	-10.214
ごめん	-10.2144
実際には	-10.2146
ましたけど	-10.2148
テープ	-10.2151
他に	-10.2151
みー	-10.2155
退	-10.2155
▁他の	-10.2156
感染	-10.216
もう一	-10.2168
になったら	-10.217
▁なんで	-10.2173
ますが	-10.2179
消え	-10.2179
わね	-10.2184
という感じ	-10.2184
を出す	-10.2185
大好き	-10.2191
手に	-10.2193
いいえ	-10.2194
その中で	-10.22
自動車	-10.2201
帰る	-10.2203
に行った	-10.2205
となって	-10.2208
5000	-10.2215
物語	-10.2227
綺麗に	-10.2232
修正	-10.2233
残念	-10.2234
ヴィ	-10.2237
ポジション	-10.2243
できなかった	-10.2244
午後	-10.2245
サイ	-10.2249
もなく	-10.2249
様子	-10.225
真ん中	-10.2256
つは	-10.2259
でかい	-10.2265
みたら	-10.2266
調べ	-10.2268
グラフ	-10.2271
わかります	-10.2272
死んで	-10.2273
そんな感じ	-10.2274
を上げて	-10.228
あの子	-10.2283
私たちに	-10.2285
遠	-10.2286
みよう	-10.2287
ちゃんの	-10.2288
てない	-10.2289
場所に	-10.2291
戻って	-10.2298
沖縄	-10.2298
どうしよう	-10.2306
ローン	-10.2313
スキー	-10.2323
ていません	-10.2324
かっていうと	-10.2327
積	-10.2329
るような	-10.2329
以外の	-10.233
見ている	-10.2332
▁ですから	-10.2332
ってのは	-10.2336
ですし	-10.2338
▁jr	-10.234
ベスト	-10.2343
回って	-10.2344
在	-10.2347
確率	-10.2349
▁すごく	-10.2352
のだ	-10.2354
の動画	-10.2354
清	-10.2359
分かった	-10.2361
トラック	-10.2362
を知っている	-10.2364
いけば	-10.2368
ついに	-10.2369
涙	-10.237
太陽	-10.2371
サイン	-10.2372
出てる	-10.2376
33	-10.2382
ドラマ	-10.2382
接続	-10.2382
ウン	-10.2383
ことができ	-10.2388
400	-10.2395
からねぇ	-10.2396
やっている	-10.2398
ヨーロッパ	-10.2399
ゴン	-10.2401
チョ	-10.2405
いま	-10.2407
になってくる	-10.2407
よる	-10.241
の位置	-10.2411
音声	-10.2416
ね今	-10.2419
情報を	-10.2421
主張	-10.2422
ひとつ	-10.2423
打	-10.2424
最高の	-10.2424
していない	-10.2425
セル	-10.2426
枝	-10.2427
申請	-10.2427
プラン	-10.2432
があると	-10.2434
機関	-10.2434
破	-10.2435
ニア	-10.2436
▁少し	-10.2439
というの	-10.2442
言い方	-10.245
何ですか	-10.2451
あなたが知っている	-10.2452
と思うんですが	-10.2454
確定	-10.2454
設置	-10.2455
検証	-10.2455
方々	-10.2455
チャン	-10.2456
▁よし	-10.2456
画	-10.2459
っていう話	-10.2462
笑	-10.2464
少年	-10.2467
エラー	-10.2468
やってた	-10.247
スイッチ	-10.2471
だして	-10.2473
やります	-10.2473
もんね	-10.2474
息子	-10.2474
頭に	-10.2476
呼び	-10.2478
ご視聴ありがとうございました	-10.2478
はとても	-10.248
ホラー	-10.2481
であったり	-10.2482
彼女の	-10.2482
の方も	-10.2482
するので	-10.2485
読む	-10.2491
友人	-10.2495
チン	-10.2496
キン	-10.2498
通信	-10.2499
じゃなかった	-10.25
▁さっき	-10.2503
一歩	-10.2503
満足	-10.2506
異なる	-10.2511
過	-10.2514
魂	-10.2515
進行	-10.2517
費用	-10.2517
会場	-10.252
ねあ	-10.2521
皆さんが	-10.2523
がすごく	-10.2526
祝	-10.2526
が欲しい	-10.2527
団体	-10.2528
藤	-10.2531
前で	-10.2532
ロボット	-10.2535
詰め	-10.2539
切った	-10.2544
ロング	-10.2545
守る	-10.2546
ありますか	-10.2549
活用	-10.255
傾向	-10.2552
特定の	-10.2553
かなー	-10.2554
考えている	-10.2555
ライフ	-10.256
事務所	-10.2563
コート	-10.2572
そうなんですよ	-10.2575
片	-10.2577
まとめて	-10.2582
掃除	-10.2585
ものすごく	-10.2586
停止	-10.2587
帯	-10.2596
うれしい	-10.2596
が入った	-10.2596
男の子	-10.2602
さんから	-10.2603
に来る	-10.2609
売れ	-10.261
体制	-10.2614
一発	-10.2621
んか	-10.2629
沢	-10.2632
走る	-10.2633
に入れて	-10.2639
というところで	-10.2641
んだろ	-10.265
わっ	-10.265
イエス	-10.265
任	-10.2653
ボディ	-10.2654
すか	-10.2658
六	-10.2659
あい	-10.2661
攻め	-10.2662
楽しんで	-10.2663
数が	-10.2668
被害	-10.2669
グッズ	-10.267
ってことは	-10.2671
タイヤ	-10.2671
ニュー	-10.2674
内で	-10.2674
クロ	-10.2675
一生	-10.2679
観	-10.2681
しなかった	-10.2684
人々が	-10.2688
いえ	-10.2689
in	-10.2695
できました	-10.2695
パンツ	-10.2696
一旦	-10.2696
かもしれないけど	-10.2698
の前	-10.27
いうと	-10.2709
ところです	-10.2709
速い	-10.2709
としての	-10.2715
中国の	-10.2719
あるん	-10.2719
が非常に	-10.2719
乱	-10.2721
そこが	-10.2722
の皆さん	-10.2722
自分を	-10.2723
大体	-10.2725
のかなぁ	-10.2731
人口	-10.2732
引いて	-10.2733
クール	-10.2736
ーー	-10.2736
せん	-10.2737
ほか	-10.2741
ボー	-10.2743
昔の	-10.2743
人たちが	-10.2745
があるから	-10.2746
違います	-10.275
[	-10.275
ワード	-10.2753
の違い	-10.2754
▁u	-10.2761
しまい	-10.2771
りとか	-10.2775
ジャー	-10.2786
ヒーロー	-10.2786
以上に	-10.2786
悲しい	-10.2788
どのような	-10.2789
となっております	-10.2792
たか	-10.2793
エイ	-10.2796
ないですか	-10.2804
ミッション	-10.2805
明治	-10.2806
バッハ	-10.2806
大変な	-10.2807
実施	-10.2808
リアル	-10.2809
てくれる	-10.2819
方法で	-10.2824
ドライブ	-10.2825
単	-10.2832
モンスター	-10.2836
キャリア	-10.2842
ことはない	-10.2846
▁全然	-10.2847
こっちが	-10.2855
見えて	-10.2856
アリ	-10.2859
証拠	-10.286
ネス	-10.2866
いいな	-10.2867
ってことで	-10.2867
コア	-10.2868
その辺	-10.287
の中でも	-10.287
電子	-10.2873
ようだ	-10.2876
の方から	-10.2878
▁けれども	-10.2879
であると	-10.2881
比較	-10.2882
総合	-10.2886
コミュニケーション	-10.2886
演奏	-10.2888
宗教	-10.2888
ないでください	-10.289
32	-10.2894
左右	-10.2894
こい	-10.2894
2020	-10.2897
いきました	-10.2898
主に	-10.2903
のまま	-10.2905
メン	-10.2906
てくれ	-10.2907
と申します	-10.2908
すっごい	-10.2908
制御	-10.291
りー	-10.291
マッチ	-10.2911
傘	-10.2916
トイレ	-10.292
皆さんの	-10.2924
オート	-10.2925
は結構	-10.2925
広く	-10.2927
日目	-10.2932
の良い	-10.2934
ma	-10.2935
前半	-10.2937
ダメだ	-10.2938
ありますよね	-10.2941
滝	-10.2943
季節	-10.2944
ですねその	-10.2945
背	-10.2946
正確に	-10.2946
けどまぁ	-10.2951
ようになる	-10.2954
ップ	-10.2955
▁it	-10.2955
言われる	-10.2958
こっちは	-10.2963
についての	-10.2963
隊	-10.2965
取れる	-10.2966
れている	-10.2966
当て	-10.2968
足を	-10.2969
激	-10.297
有効	-10.2972
行ける	-10.2979
に合わせて	-10.2981
お茶	-10.2987
子は	-10.2989
もあって	-10.299
ミン	-10.2992
ことだ	-10.2992
工事	-10.2993
見ると	-10.2993
るように	-10.2994
となり	-10.2995
思いました	-10.3
せっかく	-10.3001
▁大丈夫	-10.3001
型の	-10.3001
ダム	-10.3005
ような感じ	-10.3005
が強い	-10.3008
いただきたいと思います	-10.3008
歩く	-10.3009
▁are	-10.3011
たんだ	-10.3014
市民	-10.3014
格	-10.3015
野球	-10.3017
ルーム	-10.3017
まあその	-10.3021
緊張	-10.3022
クリーム	-10.3025
きたら	-10.3026
凄い	-10.3029
見てください	-10.3029
関	-10.3031
完了	-10.3037
晴れ	-10.3041
性格	-10.3041
ーーー	-10.3042
理想	-10.3044
に近い	-10.3045
負担	-10.3049
なんとなく	-10.305
細い	-10.3055
の木	-10.3056
んだった	-10.3056
触れ	-10.3057
▁こちら	-10.3057
バトル	-10.3057
回答	-10.306
を見てください	-10.3061
劇	-10.3065
住んで	-10.3066
幕	-10.3072
これこれ	-10.3072
の仕事	-10.3077
していきたい	-10.3078
関係ない	-10.3079
何度	-10.3083
栄養	-10.3083
があるんですけど	-10.3085
調べて	-10.3085
チャット	-10.3086
かい	-10.3089
基本的には	-10.309
がもう	-10.3091
のでしょうか	-10.3094
とこの	-10.3096
as	-10.3103
二人	-10.3104
続く	-10.3108
間違いなく	-10.311
たらいい	-10.3111
塗り	-10.3111
みたいです	-10.3115
消費	-10.3121
と思うけど	-10.3126
▁持った	-10.3127
かねぇ	-10.313
志	-10.3132
のであれば	-10.3132
やば	-10.3133
途中で	-10.3135
えーっ	-10.3138
スポット	-10.3138
▁ちなみに	-10.314
膝	-10.314
最終的に	-10.3141
廃	-10.315
歳の	-10.3153
を買って	-10.3153
分から	-10.3154
シール	-10.3157
の声	-10.3162
知っています	-10.3164
はっきり	-10.3167
って話	-10.317
連続	-10.317
するの	-10.3172
子の	-10.3172
新しく	-10.3173
夫婦	-10.3173
の後	-10.3174
トロ	-10.318
と思いますので	-10.3181
探し	-10.3182
姿勢	-10.3183
炎	-10.3185
ランク	-10.3187
狙い	-10.3189
したもの	-10.3191
違った	-10.3192
たーーー	-10.3195
レッスン	-10.3198
▁一応	-10.3198
業務	-10.3198
と思うんです	-10.3208
これはね	-10.3209
事を	-10.3211
落とし	-10.3216
勝つ	-10.3217
っぱ	-10.3217
日本に	-10.3222
トーン	-10.3223
と思いました	-10.3224
だっけ	-10.3225
はずです	-10.3229
筆	-10.3231
になってしまう	-10.3231
味方	-10.3231
っています	-10.3231
んでしょうか	-10.3232
どっ	-10.3239
新たな	-10.3241
の時間	-10.3241
ものすごい	-10.3242
できるだけ	-10.3243
▁最後に	-10.3246
▁あれ	-10.3246
いいいいいい	-10.3248
さんありがとう	-10.3249
お腹	-10.3254
キック	-10.3254
ていきます	-10.3254
フレーム	-10.3255
機械	-10.3255
ようやく	-10.3255
ぶっ	-10.3261
候補	-10.3264
ける	-10.3264
残って	-10.3266
見たら	-10.3268
行う	-10.3269
をかけて	-10.3269
外に	-10.327
させていただきました	-10.3271
矢	-10.3271
そちら	-10.3273
仏	-10.3273
▁主	-10.3273
それほど	-10.3274
基礎	-10.3276
塾	-10.3284
▁can	-10.3286
言	-10.3289
を受ける	-10.3291
はかなり	-10.3294
に行こう	-10.3303
手術	-10.3309
竜	-10.3313
製造	-10.3314
しまうと	-10.3316
あるんですよ	-10.3316
モー	-10.3321
銃	-10.3321
▁彼らが	-10.3323
塗って	-10.3323
こない	-10.3325
年目	-10.3332
あっち	-10.3333
工	-10.3333
教会	-10.3336
日本は	-10.3338
何度も	-10.3339
かかって	-10.3341
際に	-10.3341
年から	-10.3342
発展	-10.3342
交通	-10.3347
増えて	-10.3348
▁次の	-10.3349
毎年	-10.3349
もしかして	-10.336
得意	-10.3368
▁彼の	-10.3368
なしで	-10.3369
あんま	-10.337
分野	-10.3371
ないで	-10.3374
来週	-10.3375
してくれ	-10.3376
辺	-10.3381
委員会	-10.3384
魅力	-10.3385
いいけど	-10.3388
痛	-10.3389
先生が	-10.339
▁実際	-10.3392
動か	-10.3403
年代	-10.3403
というと	-10.3404
ボールを	-10.3405
運用	-10.3407
資金	-10.3408
オス	-10.3409
の上	-10.3412
ものに	-10.3417
▁うわぁ	-10.3419
イギリス	-10.3422
健	-10.3425
時々	-10.3427
名古屋	-10.3429
燃料	-10.3429
言ってた	-10.343
されていた	-10.3431
▁ai	-10.3432
スパ	-10.3433
トー	-10.3434
規模	-10.3435
下げ	-10.3443
ボート	-10.3446
魔法	-10.3454
ちゃってる	-10.3454
no	-10.3455
何だろう	-10.3457
なんかちょっと	-10.3459
コロナ	-10.346
市長	-10.3462
能	-10.3463
or	-10.3465
わぁ	-10.3471
になってます	-10.3472
全体の	-10.3479
してから	-10.3479
取得	-10.348
人物	-10.348
雑	-10.3483
今のところ	-10.3483
菜	-10.3484
を聞いて	-10.3486
携帯	-10.3487
制作	-10.3487
嫁	-10.3489
アイドル	-10.349
住宅	-10.349
回収	-10.3494
こっから	-10.3495
問題は	-10.3495
はじめ	-10.3495
なと思って	-10.3496
コーチ	-10.3497
キャンプ	-10.3501
ロール	-10.3511
しょうがない	-10.3513
パッ	-10.3513
があっ	-10.3514
こっ	-10.3516
という言葉	-10.3517
R	-10.3517
G	-10.3518
写	-10.3518
スーツ	-10.3518
職員	-10.3519
遊	-10.352
進む	-10.352
ほっ	-10.3524
が必要です	-10.353
だけは	-10.3533
疲れ	-10.3534
小学校	-10.3545
陰	-10.3546
禁止	-10.3547
殺	-10.3551
がありまして	-10.3552
だという	-10.3552
交流	-10.3555
コピー	-10.3559
のうち	-10.3561
ちゃっ	-10.3565
急いで	-10.3567
ねーよ	-10.3567
を持ち	-10.357
房	-10.3571
になりたい	-10.3571
通って	-10.3572
800	-10.3575
防衛	-10.3577
▁もっと	-10.3579
関西	-10.3579
報道	-10.3581
ないし	-10.3581
ポップ	-10.3581
差し	-10.3582
用意	-10.3585
の人が	-10.3589
メジャー	-10.3592
に来た	-10.3598
彼女が	-10.3599
与える	-10.3601
基本的な	-10.3602
そういうところ	-10.3608
あるから	-10.3608
パネル	-10.3608
福	-10.3608
聖書	-10.3609
してほしい	-10.3611
この動画	-10.3612
までも	-10.3612
なと思います	-10.3614
宝	-10.3614
たけど	-10.3615
らん	-10.3618
ってね	-10.362
を入れる	-10.3629
のない	-10.3629
ついた	-10.3633
わかりました	-10.3638
していました	-10.3638
ティング	-10.3638
エー	-10.3644
フェス	-10.3649
実現	-10.3649
だけじゃなくて	-10.3653
トーク	-10.3655
あるか	-10.3663
不動産	-10.3664
九州	-10.3668
爆発	-10.367
すべてを	-10.3672
たよ	-10.3676
高さ	-10.3676
便利	-10.3679
我	-10.3686
キス	-10.3688
はどう	-10.3689
することを	-10.3693
するような	-10.3696
栗	-10.3696
金属	-10.3699
z	-10.3704
信じ	-10.3705
どうした	-10.3707
詳しく	-10.371
嬉しいです	-10.3715
たのは	-10.3718
選	-10.3718
らず	-10.3719
いただける	-10.3722
トラ	-10.3723
るけど	-10.3723
ようになって	-10.3726
ねーなー	-10.3729
やらない	-10.373
物質	-10.373
バレ	-10.3734
当時の	-10.3736
の中の	-10.3741
女性の	-10.3745
加	-10.3745
を変える	-10.3747
起	-10.3747
などで	-10.3748
市の	-10.3749
▁女	-10.375
デート	-10.3752
尿	-10.3757
限界	-10.3758
ここも	-10.3759
▁今まで	-10.3762
熱い	-10.3764
散歩	-10.3767
孫	-10.3769
心が	-10.377
からです	-10.377
持っています	-10.3775
支配	-10.3779
一切	-10.3779
そっか	-10.3782
純	-10.3783
やっていく	-10.3784
理由は	-10.3784
していきたいとおもいます	-10.3785
もうすぐ	-10.3785
票	-10.3786
しい	-10.3787
おりました	-10.3789
オレンジ	-10.3789
単語	-10.3789
伝	-10.3796
グル	-10.3796
昨年	-10.3799
フォーム	-10.38
が来て	-10.3802
はねぇ	-10.3804
体力	-10.3807
天気	-10.381
アイス	-10.3814
パンチ	-10.3817
マイナス	-10.3818
事情	-10.3819
売ってる	-10.382
置いて	-10.3821
なると	-10.3823
余	-10.3824
真実	-10.3826
リリース	-10.3827
感じです	-10.3827
っ子	-10.383
がたくさん	-10.3832
喜	-10.3833
ラスト	-10.3839
みたいですね	-10.384
想定	-10.3844
立場	-10.3852
でもいい	-10.3855
ひと	-10.3857
al	-10.3858
いいんじゃない	-10.3861
講師	-10.3861
▁at	-10.3862
ゲイ	-10.3865
家が	-10.3868
政	-10.3869
いよいよ	-10.3874
と思うんですよね	-10.3875
がまあ	-10.3877
現状	-10.3879
終わる	-10.388
の力	-10.388
休	-10.3886
んですけどまぁ	-10.3887
やってます	-10.3888
ぶー	-10.3892
は良い	-10.3893
なければなりません	-10.3894
他の人	-10.3897
いなかった	-10.3897
相手に	-10.3898
と思うんですね	-10.3901
を見ると	-10.3901
を持った	-10.3902
浦	-10.3906
暮らし	-10.3906
汁	-10.3909
教授	-10.3909
突破	-10.3909
って何	-10.3911
最強	-10.3914
したので	-10.3921
できたら	-10.3921
こうした	-10.3923
関数	-10.3924
神社	-10.3925
レア	-10.3925
st	-10.3929
いうこと	-10.3936
などを	-10.394
の大	-10.3942
んじゃないですか	-10.3942
扱い	-10.3943
たんで	-10.3943
声が	-10.3946
しまいました	-10.3947
んだよねー	-10.395
っていうことを	-10.3952
罰	-10.3957
こんなこと	-10.3963
阿部	-10.3964
年後	-10.3964
ちょっとだけ	-10.3967
出来る	-10.3972
具体的に	-10.3973
ないんです	-10.3975
部の	-10.3976
お仕事	-10.3979
いるのは	-10.3981
核	-10.3982
という形	-10.3984
▁今回の	-10.3994
なと	-10.3994
▁こっち	-10.3997
▁pro	-10.3998
ドラゴン	-10.3999
じゃねぇ	-10.3999
B	-10.4001
著	-10.4002
実践	-10.4002
E	-10.4002
標準	-10.4002
変わり	-10.4003
なぁと思って	-10.4004
ネットワーク	-10.4006
ですねもう	-10.4015
働き	-10.4015
ステ	-10.4016
▁以上	-10.402
寄	-10.4022
徳	-10.4023
落	-10.4024
ing	-10.4025
ハーフ	-10.4026
まいります	-10.403
剣	-10.4031
一瞬	-10.4033
表情	-10.4033
アドバイス	-10.4033
宣言	-10.4033
▁on	-10.4038
地元	-10.4039
友	-10.4044
業者	-10.4045
▁sa	-10.4046
箇所	-10.4049
だけだ	-10.405
恋愛	-10.4052
たこと	-10.4054
してみてください	-10.4056
oo	-10.4058
皮	-10.4059
解釈	-10.406
佐藤	-10.4061
しようと	-10.4061
打った	-10.4061
知事	-10.4068
今も	-10.407
憲法	-10.4077
そうですか	-10.4078
議会	-10.4081
場所で	-10.4083
頭を	-10.4083
ますねー	-10.4084
風呂	-10.4084
していると	-10.4085
倉	-10.4089
▁be	-10.409
即	-10.4091
の高い	-10.4092
札	-10.4096
デッキ	-10.4098
オススメ	-10.4098
達成	-10.4099
コイン	-10.4099
という形で	-10.4105
ですとか	-10.4107
百	-10.4111
代わりに	-10.4115
アーマー	-10.4116
歩き	-10.4117
住	-10.4122
落ちる	-10.4123
はいけない	-10.4126
鏡	-10.4126
災害	-10.4127
起動	-10.4127
一言	-10.4127
返	-10.4129
道具	-10.4133
があったら	-10.4136
こんばんは	-10.4136
分かります	-10.4137
まって	-10.414
テーブル	-10.4142
青い	-10.4144
を得る	-10.4146
下がって	-10.415
詳細	-10.4153
いいんですけど	-10.4154
しなければならない	-10.4154
ダウンロード	-10.416
感じですね	-10.4161
話して	-10.4163
メーター	-10.4165
繰り返し	-10.4168
送り	-10.4173
無料	-10.4176
となっています	-10.4176
おお	-10.4177
▁pc	-10.4181
シャー	-10.4182
ちゃいます	-10.4184
ケン	-10.4186
龍	-10.4187
公式	-10.4189
▁iphone	-10.419
デジタル	-10.419
訓練	-10.419
▁あとは	-10.419
勇気	-10.4192
かかった	-10.4193
が出	-10.4194
今でも	-10.4196
からもう	-10.4201
この日	-10.4203
とう	-10.4203
時も	-10.4205
岡	-10.4205
迎え	-10.4206
を受けた	-10.4214
かと	-10.4215
びっくり	-10.4217
地図	-10.4217
▁入った	-10.4218
はもちろん	-10.4221
よこれ	-10.4221
あっはい	-10.4221
q	-10.4221
れます	-10.4223
山田	-10.4225
属性	-10.4228
布	-10.4229
ネイル	-10.4229
仕上げ	-10.4232
ボン	-10.4232
わからん	-10.4232
本日は	-10.4233
上がった	-10.4236
都	-10.4242
じゃないけど	-10.4247
道を	-10.4247
を使用して	-10.4248
テキスト	-10.4251
国会	-10.4252
配布	-10.4253
変え	-10.4253
レビュー	-10.4254
展示	-10.4256
忘れ	-10.4256
おすすめ	-10.4257
仕組み	-10.426
et	-10.4267
ね結構	-10.4271
もあの	-10.4273
者に	-10.4274
はやっぱり	-10.4275
▁ハイ	-10.4282
気をつけて	-10.4282
副	-10.4284
使っている	-10.4285
結論	-10.4286
んだよなぁ	-10.4286
増加	-10.4287
手紙	-10.4288
おばあちゃん	-10.4289
そうですよ	-10.4291
日から	-10.4293
▁だけど	-10.4297
るって	-10.4297
600	-10.4298
許可	-10.4299
試	-10.4299
ところを	-10.4301
ましょうか	-10.4301
そりゃ	-10.4302
豆	-10.4303
スライド	-10.4303
寿司	-10.4305
んじゃないかなと思います	-10.4306
してて	-10.4306
誰だ	-10.4308
クス	-10.431
動い	-10.4312
しく	-10.4313
るの	-10.4314
雄	-10.4316
少なくとも	-10.4316
いやいや	-10.4318
ドライバー	-10.4319
正しく	-10.432
務	-10.4324
受ける	-10.4328
保証	-10.4332
▁米	-10.4335
あまりにも	-10.4338
ホント	-10.4338
決めて	-10.4339
高速	-10.434
のですか	-10.434
▁もうちょっと	-10.4343
もうあの	-10.4346
いるか	-10.4348
どこか	-10.4348
をします	-10.4349
からも	-10.435
モーター	-10.435
恐ろしい	-10.4351
変えて	-10.4352
飛行機	-10.4354
▁co	-10.4366
まじ	-10.4366
話が	-10.4366
言いました	-10.4368
同じように	-10.4369
たまたま	-10.437
体に	-10.4373
パートナー	-10.4382
おきます	-10.4382
できること	-10.4383
材	-10.4386
パッチ	-10.4386
36	-10.4388
▁dou	-10.4389
洋	-10.4392
子ども	-10.4395
勝った	-10.4395
動	-10.4395
ゴールド	-10.4396
ていました	-10.4399
前提	-10.4399
するように	-10.4401
このゲーム	-10.4402
示	-10.4403
住民	-10.4403
今回も	-10.4404
本日	-10.4405
きている	-10.4405
富	-10.4406
証	-10.4409
面白かった	-10.4417
▁これも	-10.4419
世紀	-10.4419
を入れ	-10.4421
やめて	-10.4434
キーワード	-10.4436
適用	-10.4437
本体	-10.4437
昔から	-10.444
確実に	-10.444
奴が	-10.4442
この間	-10.4443
はすべて	-10.4444
豚	-10.4445
刀	-10.4445
とし	-10.4446
出来	-10.4446
en	-10.4446
オーナー	-10.4448
ショ	-10.4452
▁でこの	-10.4454
と同じように	-10.4456
そういうの	-10.4458
ありまして	-10.4459
府	-10.4462
するのが	-10.4466
おりまして	-10.4468
であって	-10.4468
締め	-10.4473
心を	-10.4474
先週	-10.4475
策	-10.4475
ジャック	-10.4477
時代の	-10.4478
伊藤	-10.4478
世界に	-10.4479
忙しい	-10.4484
要するに	-10.4485
メリット	-10.4486
生物	-10.4487
お菓子	-10.4494
農業	-10.4495
ッツ	-10.4504
にした	-10.4506
特別な	-10.451
カ月	-10.4514
していただいて	-10.4514
まるで	-10.4515
ナンバー	-10.4519
どこまで	-10.4524
することができる	-10.4525
▁自分の	-10.4526
発言	-10.4527
出会い	-10.4531
戦う	-10.4531
ta	-10.4531
そしてそれは	-10.4531
来年	-10.4533
入らない	-10.4535
▁棟	-10.454
バター	-10.454
56	-10.4541
主人公	-10.4544
氏は	-10.4546
休み	-10.4546
ぃ	-10.4549
自身	-10.455
働く	-10.455
ぐらいで	-10.4552
そしてこの	-10.4553
幸	-10.4555
▁ねえ	-10.4558
ジン	-10.4559
ねなんか	-10.456
混ぜ	-10.4564
限	-10.4565
短	-10.4567
いても	-10.457
-1	-10.457
スク	-10.4572
フェイス	-10.4574
濃い	-10.4574
が良い	-10.4577
ナイス	-10.4577
講座	-10.4577
そうだな	-10.4582
欠	-10.4584
屋根	-10.4587
はっはっは	-10.4588
そういうことを	-10.459
しますね	-10.4591
感動	-10.4592
売	-10.4593
習	-10.4597
▁だいたい	-10.4598
全然違う	-10.4599
張	-10.4601
が好き	-10.4608
たんだけど	-10.4609
天皇	-10.4609
100%	-10.461
に行き	-10.4614
どういうふうに	-10.4615
出てきて	-10.4615
開けて	-10.4616
んだと	-10.4617
地域の	-10.4619
せない	-10.462
することが	-10.4621
ちょっとあの	-10.4623
出身	-10.4623
継続	-10.4626
っていうような	-10.4629
ないような	-10.4631
もですね	-10.4631
話題	-10.4632
をしっかり	-10.4639
指摘	-10.4639
山の	-10.464
紫	-10.4641
可能性がある	-10.4644
増え	-10.4646
空港	-10.4647
方向に	-10.4648
なよ	-10.465
歌って	-10.4651
でございました	-10.4652
リズム	-10.4653
キャ	-10.4656
ディア	-10.4658
ありますけど	-10.4662
34	-10.4663
みたいなこと	-10.4666
しまいます	-10.4667
ビジョン	-10.467
っこ	-10.4672
なんだか	-10.4675
ホワイト	-10.4675
あると	-10.4676
▁続いて	-10.4677
通して	-10.4689
不足	-10.4695
現在の	-10.4697
闇	-10.4702
以上です	-10.4703
国内	-10.4705
誰でも	-10.4706
いいから	-10.4708
アプローチ	-10.4708
階段	-10.471
いいの	-10.471
ことができない	-10.4713
君の	-10.4713
良くない	-10.4717
までに	-10.4718
分で	-10.4721
の国	-10.4723
世界で	-10.4727
ができた	-10.4731
まあそういう	-10.4732
側に	-10.4734
使ってる	-10.4735
現	-10.4737
んだよな	-10.4741
オプション	-10.4742
コンテンツ	-10.4742
クリスマス	-10.4742
具合	-10.4742
予約	-10.4742
ございません	-10.4743
ご覧ください	-10.4743
撮って	-10.4746
らしく	-10.4747
▁go	-10.4748
読	-10.4749
頭の	-10.4752
分け	-10.4752
思っています	-10.4753
喜んで	-10.4754
粒	-10.476
出せ	-10.4762
いら	-10.4763
ダーク	-10.4765
守り	-10.4766
比	-10.4769
?	-10.477
泉	-10.4771
カッコ	-10.4771
の仕方	-10.4772
もらいたい	-10.4772
パッケージ	-10.4775
が出た	-10.4777
建設	-10.4778
プレイヤー	-10.4781
つ目	-10.4787
ねあー	-10.4787
と思うんで	-10.4788
先生の	-10.4788
苦しい	-10.479
ワイ	-10.479
レット	-10.479
いいところ	-10.4795
内部	-10.4796
▁今日の	-10.4796
立っ	-10.4797
共同	-10.4798
くり	-10.48
誰かが	-10.4801
舞	-10.4802
た時に	-10.4803
さない	-10.4804
ないですよね	-10.4806
が来た	-10.4806
自体は	-10.4808
取れ	-10.4808
無事	-10.4808
霧	-10.4809
徐々に	-10.4809
になるので	-10.4809
▁max	-10.4809
結	-10.4809
ワールド	-10.481
ネジ	-10.4813
世の中	-10.4814
たって	-10.4814
に見える	-10.4815
へん	-10.4818
最大の	-10.4819
ことを知っています	-10.4821
声を	-10.4822
千葉	-10.4825
たんです	-10.4828
通常の	-10.4829
体重	-10.4829
爆	-10.4833
感が	-10.4836
時代に	-10.4837
だめだ	-10.4839
好み	-10.4841
暇	-10.4842
ギリギリ	-10.4842
栽培	-10.4842
堀	-10.4842
の頃	-10.4846
たちの	-10.4847
ーン	-10.4858
のやつ	-10.4859
大きさ	-10.4861
▁tan	-10.4866
クリック	-10.4868
方で	-10.4868
の名前	-10.4869
ギー	-10.4871
場で	-10.4871
を選んで	-10.4872
飛行	-10.4873
フロント	-10.4876
馬鹿	-10.4877
プレート	-10.4877
デビュー	-10.4878
▁今は	-10.488
ハー	-10.4882
困る	-10.4884
視	-10.4886
待つ	-10.4887
だよねー	-10.4888
ぽん	-10.4889
ものの	-10.4889
前後	-10.4893
ないですよ	-10.4897
放	-10.4898
きっ	-10.4903
相手が	-10.4903
はある	-10.4905
捨て	-10.4908
よああ	-10.4909
七	-10.491
ファッション	-10.491
珍しい	-10.491
キャン	-10.4915
切	-10.4917
ようで	-10.4918
合って	-10.4918
られました	-10.4921
でそれを	-10.4923
にあった	-10.4926
進め	-10.4928
をし	-10.4929
することによって	-10.4931
てきて	-10.4932
皿	-10.4932
ことがあります	-10.4936
生地	-10.4936
可能性があります	-10.4937
▁day	-10.494
める	-10.4941
菌	-10.4943
予防	-10.4944
とかって	-10.4946
キュ	-10.4952
▁やはり	-10.4956
お届け	-10.4956
水が	-10.4957
少しずつ	-10.496
んじゃなくて	-10.4963
医者	-10.4964
のようなもの	-10.4965
話した	-10.4965
だったから	-10.4967
課	-10.497
かなと思って	-10.4972
伸び	-10.4977
相撲	-10.4978
雑誌	-10.4978
混乱	-10.4978
温泉	-10.4979
ユニット	-10.4979
チップ	-10.498
だけが	-10.499
してくれた	-10.499
ほうがいい	-10.4993
とこう	-10.4995
お知らせ	-10.4995
▁二	-10.4997
の動き	-10.5
聴	-10.5001
景色	-10.5001
ログ	-10.5004
笑顔	-10.5006
もう本当に	-10.501
るのは	-10.501
噂	-10.5012
コミュニティ	-10.5012
自分自身	-10.5015
昼	-10.5015
家を	-10.5015
を上げる	-10.5018
復活	-10.5018
が入る	-10.5019
んですけれど	-10.503
接	-10.5031
おっしゃ	-10.5033
って言ってる	-10.5034
かもしれませんが	-10.5037
分くらい	-10.5037
したりとか	-10.5037
ビット	-10.504
ムー	-10.5045
甲	-10.5045
▁google	-10.5047
選択肢	-10.5047
その他	-10.5047
透明	-10.5047
衣装	-10.5047
▁実際に	-10.5047
▁明日	-10.5048
少女	-10.505
離れ	-10.5057
いかに	-10.5058
男女	-10.5061
あいつ	-10.5061
居る	-10.5063
ガール	-10.5063
他にも	-10.5064
選手が	-10.5067
みんなに	-10.5068
おっしゃって	-10.5069
るよ	-10.5073
プール	-10.5077
じゃないと	-10.5077
越冬	-10.5078
ケーブル	-10.5079
知った	-10.5081
=	-10.5081
あろう	-10.5082
ナビ	-10.5082
縦	-10.5083
さが	-10.5084
ia	-10.5088
話は	-10.5094
入ってくる	-10.5095
感想	-10.5095
明るい	-10.5099
ソー	-10.5102
しっ	-10.5105
いること	-10.5105
陣	-10.5106
こちらに	-10.5107
ないんですよね	-10.5107
よい	-10.5109
神経	-10.5112
▁ブーブ	-10.5112
本の	-10.5112
るっていう	-10.5113
訪問	-10.5116
ぁー	-10.5118
路線	-10.5119
▁あって	-10.5121
なりません	-10.5123
出発	-10.5123
考えると	-10.5123
ゲート	-10.5124
私はあなたが	-10.5126
成果	-10.5126
していきましょう	-10.5128
何の	-10.5128
言いたい	-10.513
はこちら	-10.5132
わよ	-10.5134
米国	-10.5137
に対し	-10.5144
殺す	-10.5145
書いてあります	-10.5146
▁ああああ	-10.5146
およそ	-10.5146
もう一回	-10.5149
向かって	-10.5149
江戸	-10.515
カウンター	-10.5151
交渉	-10.5151
思考	-10.5151
一時	-10.5153
速く	-10.5158
どっちが	-10.5158
なんていう	-10.5161
裁判	-10.5161
クソ	-10.5161
おじさん	-10.5166
人もいる	-10.5172
車の	-10.5173
くらいの	-10.5174
場合には	-10.5175
嫌な	-10.5182
パッド	-10.5185
棟	-10.5189
チケット	-10.519
にしても	-10.5191
▁さらに	-10.5193
▁dj	-10.5193
ますけれども	-10.5194
依存	-10.5196
待ってる	-10.5199
一定	-10.52
ただの	-10.5205
華	-10.5206
犯	-10.5207
してきました	-10.5207
言っても	-10.5208
と思っております	-10.5211
ちゃい	-10.5213
終わります	-10.5213
申し訳ない	-10.5214
文書	-10.5214
整理	-10.5215
おこう	-10.5215
の端	-10.5216
本来	-10.5219
ブーム	-10.5222
対戦	-10.5223
っぽ	-10.5225
暑い	-10.5228
鉄道	-10.5229
外国人	-10.5231
V	-10.5232
田中	-10.5234
ないこと	-10.5234
マット	-10.5239
がありません	-10.524
フード	-10.524
明け	-10.5242
人形	-10.5243
パート	-10.5243
インター	-10.5243
養	-10.5244
基	-10.5245
待った	-10.5251
わずか	-10.5251
事例	-10.5251
なかったので	-10.5253
悩み	-10.5254
獣	-10.5254
方法を	-10.5254
取材	-10.5256
10%	-10.5258
ポーズ	-10.5258
抑え	-10.5259
造	-10.5261
戻る	-10.5261
サーブ	-10.5262
が結構	-10.5263
先ほどの	-10.5266
先の	-10.5272
▁part	-10.5275
落ち着いて	-10.5276
厚	-10.5276
行ったら	-10.5278
シア	-10.5279
と思ってる	-10.5281
を使用する	-10.5281
営	-10.5283
負	-10.5284
わけではない	-10.5285
歌う	-10.5285
独立	-10.5285
払い	-10.5288
やっぱりあの	-10.5289
連携	-10.5289
ジェット	-10.529
衣	-10.529
自宅	-10.529
母親	-10.5294
逃げる	-10.5294
か月	-10.5296
マシン	-10.5301
で一番	-10.5304
▁ああああああああああああ	-10.5304
るんですね	-10.5305
に入っ	-10.5306
お勧め	-10.5311
レイヤー	-10.5312
時間は	-10.5312
しており	-10.5313
▁ano	-10.5315
を超えて	-10.5318
じゃねえ	-10.532
カス	-10.5321
弁	-10.5325
アース	-10.5326
供給	-10.5326
スプーン	-10.5326
と思うんだけど	-10.5326
優先	-10.5329
マネー	-10.5332
ポリ	-10.5333
これちょっと	-10.5335
見せて	-10.5335
なんだから	-10.5336
こっちに	-10.534
発信	-10.5341
農	-10.5342
使え	-10.5343
るんですよね	-10.5346
行きたいと思います	-10.5348
祈り	-10.5352
たった	-10.5355
自由に	-10.5355
にならない	-10.5356
願	-10.5356
協会	-10.536
比較的	-10.536
▁ですけど	-10.5361
休憩	-10.5361
弁護士	-10.5362
盤	-10.5362
集団	-10.5364
よかったら	-10.5364
思っている	-10.5367
大切な	-10.5367
ちん	-10.5368
ことになる	-10.5368
ガラス	-10.5369
どれくらい	-10.537
わけですから	-10.5372
まあこの	-10.5374
建	-10.5381
▁ハーイ	-10.5384
巨	-10.5384
表面	-10.5385
55	-10.5385
レート	-10.5385
思ってる	-10.5388
コツ	-10.539
遅く	-10.539
もあった	-10.539
眼	-10.5392
隠	-10.5393
とり	-10.5393
学び	-10.5396
もその	-10.5397
ことになります	-10.5398
ワイン	-10.5398
理論	-10.5399
ります	-10.5399
▁山	-10.5402
なっています	-10.5403
パーク	-10.5405
ありますので	-10.5408
となりました	-10.5409
があの	-10.5411
ブー	-10.5419
150	-10.542
今年は	-10.5421
ですねまあ	-10.5429
介	-10.543
泊	-10.5432
▁黒	-10.5436
▁上	-10.5438
多少	-10.5439
食って	-10.5442
ちゃいました	-10.5449
31	-10.5449
中間	-10.5452
いやもう	-10.5453
の花	-10.5455
ねすごい	-10.5464
木の	-10.5465
ラス	-10.5467
需要	-10.5469
長さ	-10.5471
基地	-10.5472
税金	-10.5473
小説	-10.5473
最低	-10.5473
えん	-10.5474
項目	-10.5479
改正	-10.5481
ランプ	-10.5481
おう	-10.5487
大事に	-10.5487
までの	-10.5488
をしています	-10.5489
子供が	-10.549
従	-10.5492
データを	-10.5494
教師	-10.5495
アーム	-10.5496
ホームページ	-10.5502
好きで	-10.5502
ラウンド	-10.5503
オフィス	-10.5505
番手	-10.5505
納得	-10.5505
月から	-10.5506
されない	-10.5507
アド	-10.5516
ねそれ	-10.5518
お会い	-10.5519
せい	-10.552
がついて	-10.5521
ce	-10.5524
の流れ	-10.5533
るぞ	-10.5534
ハンド	-10.5534
ターゲット	-10.5534
種類の	-10.5535
さすが	-10.5538
自体が	-10.5538
っていた	-10.5539
N	-10.5541
当たった	-10.5545
機器	-10.5552
も同じ	-10.5557
▁現在	-10.5557
スレ	-10.5559
地元の	-10.556
収入	-10.5566
カリ	-10.557
ギア	-10.5572
上位	-10.5572
ますと	-10.5575
内に	-10.5576
チャンピオン	-10.5577
案内	-10.558
中身	-10.5581
いつでも	-10.5582
ができます	-10.5583
手段	-10.5584
はいそれでは	-10.5585
育て	-10.5586
po	-10.5589
が多く	-10.5592
キリスト	-10.5595
▁まあまあ	-10.5601
ここでは	-10.5606
で今	-10.5607
症状	-10.5609
行政	-10.561
わない	-10.5611
郷	-10.5612
イタリア	-10.5613
正面	-10.5616
ども	-10.5621
連れて	-10.5622
除	-10.5626
ループ	-10.5628
思っ	-10.5628
いるんですけど	-10.563
を知る	-10.5633
をつける	-10.5634
いいですよね	-10.5637
▁しかも	-10.5638
元の	-10.5638
仕掛け	-10.5641
何かを	-10.5643
na	-10.5648
離れて	-10.5658
それぐらい	-10.5659
あなたと	-10.5665
マリ	-10.5666
することは	-10.5667
楽しかった	-10.5668
二つ	-10.5668
グラム	-10.5668
酸	-10.5671
集まって	-10.5678
しょん	-10.5679
視聴者	-10.5681
阿蘇	-10.5683
ったり	-10.5686
風に	-10.5686
周りの	-10.5686
応募	-10.5686
キャンペーン	-10.5686
にあの	-10.5687
狭い	-10.5694
ようになります	-10.57
次元	-10.5702
終	-10.5703
替え	-10.5704
行くと	-10.5709
に戻って	-10.5711
成分	-10.5711
やりました	-10.5717
口に	-10.5718
シャン	-10.5721
インタビュー	-10.5723
不思議	-10.5723
▁こんな感じで	-10.5724
▁結局	-10.5724
生成	-10.5725
なのです	-10.5726
どこの	-10.5728
キャップ	-10.5728
どん	-10.5729
コンピューター	-10.5729
の方の	-10.573
関東	-10.574
作れる	-10.574
私たちを	-10.5743
あるんです	-10.575
っていく	-10.575
きてる	-10.575
られます	-10.575
餌	-10.5751
使い方	-10.5753
ミラー	-10.5754
ですねこれは	-10.5754
装	-10.5754
座って	-10.5757
入れた	-10.5758
教えてください	-10.5758
デバイス	-10.576
飛ぶ	-10.5761
ポート	-10.5761
店舗	-10.5761
をちょっと	-10.5762
さっ	-10.5763
食べたい	-10.5768
カイ	-10.5768
送って	-10.5771
スイング	-10.5776
ですねええ	-10.578
たーーーー	-10.578
会う	-10.5782
間違って	-10.5782
その前に	-10.5782
キャッチ	-10.5783
クレ	-10.5785
効率	-10.5788
なったら	-10.5789
ちゃんは	-10.5791
を開いて	-10.5792
だろうか	-10.5793
無駄	-10.5794
いか	-10.5796
膜	-10.5797
小さく	-10.5797
ズーム	-10.5798
念	-10.5799
数は	-10.5802
自分も	-10.5806
みたいなもの	-10.5808
参	-10.5812
見れる	-10.5814
君が	-10.5814
を知っています	-10.5814
るのが	-10.5814
ベルト	-10.5815
▁love	-10.5815
私はあなたに	-10.582
us	-10.5824
ことができました	-10.5824
ビン	-10.5824
視聴	-10.5826
づ	-10.5827
領	-10.5831
それら	-10.5831
エンド	-10.5831
可	-10.5831
猿	-10.5834
チュー	-10.5836
初期	-10.584
ねこれは	-10.584
働いて	-10.5844
若	-10.5845
フロー	-10.5848
するときに	-10.5848
動画で	-10.5849
ころ	-10.5851
を取って	-10.5853
ねええ	-10.5855
なぜなら	-10.5855
冷	-10.5857
▁そうそう	-10.586
わかり	-10.586
もちょっと	-10.5863
好きだ	-10.5865
ベンチ	-10.5868
を引き	-10.5869
どういった	-10.587
しなきゃいけない	-10.5871
置き	-10.5871
資産	-10.5871
批判	-10.5872
修理	-10.5872
施工	-10.5872
事態	-10.5876
台湾	-10.5877
引き続き	-10.5877
ないんだけど	-10.5878
アクセス	-10.588
いうことで	-10.588
ができない	-10.5881
していること	-10.5882
▁あるいは	-10.5883
ができ	-10.5885
たとえば	-10.5885
スカ	-10.5886
エース	-10.5886
どうなる	-10.5887
決めた	-10.589
▁右	-10.5891
ありますよ	-10.5893
笑って	-10.5897
エコ	-10.5899
寒	-10.59
降	-10.5901
てほしい	-10.5903
亀	-10.5905
要求	-10.5906
恐怖	-10.5909
▁先ほど	-10.5909
記載	-10.591
▁でまぁ	-10.591
次第	-10.5911
変える	-10.5914
やってきた	-10.5915
ないかな	-10.5916
ハイあの	-10.5919
発動	-10.5924
▁どう	-10.5927
プレス	-10.5929
誕生日	-10.5929
でえっと	-10.5934
密	-10.5935
生きている	-10.5936
あるんですね	-10.5936
意味で	-10.5941
思え	-10.5943
▁se	-10.5945
であること	-10.5946
尺	-10.5947
高級	-10.5947
ピアノ	-10.5948
受けた	-10.5948
▁逆に	-10.5949
だら	-10.5949
だけの	-10.595
シュート	-10.5951
電池	-10.5952
65	-10.5953
した時に	-10.5953
パク	-10.5955
走行	-10.5955
あの日	-10.5957
報	-10.5958
くると	-10.5964
卒業	-10.5965
吹き	-10.5966
ジョー	-10.5968
つけた	-10.5969
てます	-10.5972
場合に	-10.5973
持	-10.5974
を変えて	-10.5974
▁西	-10.5977
大学の	-10.5983
てた	-10.5984
ホイール	-10.5984
スペシャル	-10.5985
音を	-10.5986
を作り	-10.5987
いいんだけど	-10.5988
いますが	-10.5989
もらおう	-10.599
豊	-10.5991
具体的な	-10.5993
せずに	-10.5995
うんうん	-10.5996
自ら	-10.5996
で結構	-10.5999
医	-10.6001
というふうに思います	-10.6002
ねん	-10.6004
するもの	-10.6005
ているので	-10.6006
していこう	-10.6009
の状態	-10.6009
ッター	-10.6009
等の	-10.6015
上下	-10.6015
ぐらいに	-10.6016
▁赤	-10.6017
と私は	-10.6019
詳しい	-10.6022
博士	-10.6023
電源	-10.6023
センサー	-10.6024
対処	-10.6025
送信	-10.6026
側の	-10.6027
エビ	-10.6029
論文	-10.603
それとも	-10.603
を知って	-10.6031
弟	-10.6032
じゃね	-10.6033
ちゃーん	-10.6035
両親	-10.6035
昭和	-10.604
語り	-10.6044
築	-10.6044
▁超	-10.6045
あの子の	-10.6046
▁is	-10.6049
いるのが	-10.6054
っぽく	-10.6055
旬	-10.606
ジム	-10.606
スタジオ	-10.606
知らなかった	-10.6063
しないで	-10.6063
色々と	-10.6064
統一	-10.6064
などが	-10.6066
なれば	-10.6068
マナー	-10.6074
つぶ	-10.6076
合った	-10.6078
スマート	-10.6078
うわ	-10.6079
なさ	-10.6081
2019	-10.6081
分子	-10.6081
の歴史	-10.6082
そうだった	-10.6083
んな	-10.6085
があるんですよ	-10.6085
外で	-10.6086
右側	-10.6086
心に	-10.6087
下手	-10.6091
人って	-10.6091
シェ	-10.6092
たびに	-10.6093
がありますので	-10.6095
会長	-10.6098
フォン	-10.61
ハワイ	-10.61
キル	-10.6101
こういうの	-10.6101
んだなぁ	-10.6104
▁めちゃくちゃ	-10.6107
立った	-10.6111
始まり	-10.6113
こともある	-10.6115
これあの	-10.6115
からちょっと	-10.6116
というものを	-10.6118
陽	-10.6119
勢力	-10.6126
ヤバイ	-10.6126
を変え	-10.6129
時点で	-10.6133
パール	-10.6134
予測	-10.6134
競争	-10.6137
拠点	-10.6137
もらえ	-10.6139
op	-10.614
怒り	-10.6142
相続	-10.6143
抜けて	-10.6151
でしたが	-10.6158
そうだよ	-10.6159
マイクロ	-10.616
折	-10.616
ねあのー	-10.6161
入ってます	-10.6162
を選ぶ	-10.6165
いくつ	-10.6172
奈	-10.6175
みたいと思います	-10.618
延長	-10.6181
いますか	-10.6185
はいっ	-10.6185
んだぞ	-10.6189
した後	-10.6195
億円	-10.6196
本人	-10.6199
形式	-10.6203
暗	-10.6203
の関係	-10.6203
さんとか	-10.6205
盛	-10.6206
んだけども	-10.6207
ラブ	-10.6207
露	-10.621
ベン	-10.6212
推進	-10.6214
要望	-10.6214
この前	-10.6215
▁ki	-10.6215
奴は	-10.6216
権利	-10.6218
をやる	-10.6224
人がいる	-10.6224
助	-10.6225
ニック	-10.6226
ホット	-10.6228
支え	-10.6228
これらは	-10.6229
投	-10.6231
お前は	-10.6232
フラ	-10.6232
モノ	-10.6236
撮り	-10.6236
持っ	-10.6237
無視	-10.6237
したのは	-10.6238
狙って	-10.6239
乾燥	-10.6242
キレイ	-10.6243
人間が	-10.6244
やっていきます	-10.6247
人々は	-10.6251
学ぶ	-10.6251
ちっ	-10.6253
わかりやすい	-10.6254
いいんだ	-10.6258
ストーン	-10.6259
戦って	-10.6259
新規	-10.6263
▁今後	-10.6266
ドー	-10.6267
ねこう	-10.6269
なんかもう	-10.6269
からな	-10.627
もう一個	-10.627
たいと	-10.6271
コラボ	-10.6273
にとっては	-10.6274
▁朝	-10.6275
中学校	-10.6279
被	-10.628
カム	-10.6281
会計	-10.6285
もあるし	-10.6287
工夫	-10.6287
ないと思う	-10.6292
▁12	-10.6292
と思っている	-10.6293
足りない	-10.6296
ッカー	-10.6296
何もない	-10.6297
どうだ	-10.6297
所で	-10.6298
▁私たち	-10.6299
隠し	-10.6299
ますからね	-10.6302
登って	-10.6303
スープ	-10.6303
構え	-10.6304
エアー	-10.6305
サビ	-10.6306
だと思うんですけど	-10.6306
確保	-10.6307
であろう	-10.6309
農家	-10.631
ダル	-10.6312
マグ	-10.6313
お願いいたします	-10.6313
加速	-10.6315
笑い	-10.6319
したくない	-10.6319
私はそれを	-10.6319
性が	-10.632
回の	-10.6321
ますから	-10.6322
諦め	-10.6326
回る	-10.6326
岸	-10.633
講義	-10.6331
現象	-10.6331
反射	-10.6331
の言葉	-10.6331
ゆう	-10.6332
防御	-10.6333
持っていた	-10.6333
リップ	-10.6335
品質	-10.6336
唯一の	-10.6336
ゾ	-10.6336
ピース	-10.6337
殺し	-10.6338
そうですねあの	-10.6338
ええまあ	-10.6343
そうなんです	-10.6347
ローマ	-10.6348
んだけれども	-10.6349
作家	-10.6351
ブロ	-10.6352
どれぐらい	-10.6352
とかに	-10.6354
ことができません	-10.6364
グリ	-10.6367
るために	-10.6368
F	-10.637
統合	-10.637
いいじゃん	-10.637
ter	-10.637
サンプル	-10.6371
はいこれ	-10.6371
アイデア	-10.6373
遺伝子	-10.6376
そうじゃない	-10.6377
pe	-10.6381
ストレート	-10.6381
カーブ	-10.639
た方がいい	-10.6392
切り替え	-10.6393
なんだよね	-10.6398
感じて	-10.6398
知らせ	-10.6398
いやでも	-10.6407
アプリケーション	-10.6409
歌詞	-10.641
ピザ	-10.6413
マウス	-10.6413
比べ	-10.6417
様の	-10.6422
じゃなく	-10.6425
ほんまに	-10.6427
を感じる	-10.6429
▁神	-10.6429
化して	-10.6429
の内容	-10.6431
液	-10.6432
de	-10.6441
んぐ	-10.6442
創造	-10.6443
過ごし	-10.6445
翼	-10.6447
くら	-10.6447
ッチ	-10.6448
素敵	-10.6448
交	-10.6452
守って	-10.6453
静	-10.6454
ジャパン	-10.6455
センス	-10.6455
ツイッター	-10.6456
共通	-10.6457
▁そこで	-10.6459
精	-10.646
寝て	-10.6461
ブリ	-10.6463
マス	-10.6463
スティック	-10.6467
作っ	-10.6467
司	-10.6468
しー	-10.6468
▁全	-10.647
色が	-10.6473
出演	-10.6473
人とか	-10.6479
行きましょう	-10.648
ライダー	-10.6481
埋め	-10.6481
使用する	-10.6482
ブック	-10.6483
杉	-10.6484
ことはありません	-10.6485
好きです	-10.6485
発行	-10.6485
ポッ	-10.6486
ワクチン	-10.6488
潮	-10.6488
弓	-10.6488
気持ちが	-10.649
かという	-10.6491
見方	-10.6491
ありがとうござい	-10.6495
▁100	-10.6495
▁一方	-10.6496
一般的な	-10.6496
すと	-10.6496
再現	-10.6497
いいのかな	-10.6497
フォア	-10.6498
ねえええ	-10.6499
過去の	-10.6499
教室	-10.6501
プル	-10.6509
礼	-10.6511
避け	-10.6513
秘密	-10.6515
▁どうも	-10.6518
自動	-10.6522
組んで	-10.6522
んだぜ	-10.6522
を置いて	-10.6523
ガイド	-10.6528
を見つける	-10.6536
受	-10.6538
グラス	-10.6539
くださって	-10.6543
解放	-10.6546
十分に	-10.6548
呼んで	-10.6551
の中では	-10.6552
盛り	-10.6555
火力	-10.6561
レバー	-10.6563
艦	-10.6566
安く	-10.6566
弦	-10.6568
沼	-10.6568
刺激	-10.6568
遊んで	-10.6569
ブレーキ	-10.6569
会で	-10.6569
右手	-10.6571
に感謝	-10.6574
たる	-10.6574
デン	-10.6577
台風	-10.6578
の前で	-10.6581
イオン	-10.6581
いまして	-10.6582
作用	-10.6582
悪く	-10.6584
小屋	-10.6585
今年の	-10.6591
▁何だろう	-10.6592
▁東	-10.6593
化する	-10.6593
ゴルフ	-10.6594
つながり	-10.6596
sa	-10.6597
修	-10.6599
見ない	-10.6602
鹿	-10.6604
紅	-10.6604
▁hp	-10.6604
じゃないです	-10.6606
入っている	-10.6607
もありました	-10.6608
探して	-10.661
よええ	-10.6611
仲良く	-10.6611
解除	-10.6612
分割	-10.6617
心の	-10.6621
じゃないかな	-10.6621
と思うん	-10.6625
を少し	-10.6626
きゃ	-10.6629
▁あなたは	-10.6633
味が	-10.6634
算	-10.6636
しね	-10.6637
向	-10.6637
はすでに	-10.6639
▁白	-10.664
眠	-10.6643
我々は	-10.6643
女性が	-10.6643
はいということで	-10.6644
完璧	-10.6645
参照	-10.6647
簿	-10.6648
はあなたが	-10.665
芸術	-10.665
なんだね	-10.665
▁line	-10.665
スコア	-10.665
ボーイ	-10.6651
群	-10.6654
始めました	-10.6655
狩り	-10.6656
って言われて	-10.6657
現代	-10.6658
ご存知	-10.6659
信号	-10.666
ad	-10.666
のでちょっと	-10.6663
かっていう	-10.6663
んでしょうね	-10.6665
ところですね	-10.6665
商	-10.6665
をかけ	-10.6667
どんどんどんどん	-10.6669
土曜日	-10.667
割り	-10.6671
現地	-10.6674
ねほんと	-10.6677
テル	-10.6679
ゴー	-10.668
▁金	-10.6684
来ました	-10.6685
ちょっと違う	-10.6686
の大きさ	-10.6689
喧嘩	-10.6689
もっともっと	-10.6691
アカウント	-10.6693
イー	-10.6695
りする	-10.6698
た後	-10.67
見えた	-10.6704
と思うんですけども	-10.6704
航空	-10.6705
大切	-10.6706
リオ	-10.6707
入れない	-10.6708
だったんですよ	-10.6709
収集	-10.671
人々の	-10.6711
と思いますよ	-10.6714
がまだ	-10.6717
たくて	-10.6718
子供の	-10.6722
かもしれないですね	-10.6723
手で	-10.6724
いいんですよ	-10.6724
襲	-10.6726
詐欺	-10.6729
そういえば	-10.673
アーティスト	-10.673
もらい	-10.6733
悪魔	-10.6733
気を	-10.6735
たっ	-10.6735
天井	-10.6735
部分が	-10.6742
によると	-10.6743
ようと	-10.6743
ねそういう	-10.6744
遅れ	-10.6747
君は	-10.6747
クマ	-10.6748
ていない	-10.6751
突	-10.6754
しますか	-10.6758
なぁと	-10.6758
もんだ	-10.6759
ましたが	-10.6759
個性	-10.6761
上げる	-10.6765
なにこれ	-10.6768
二重	-10.6769
の情報	-10.677
▁昨日	-10.677
足の	-10.677
不思議な	-10.677
わざわざ	-10.6771
妄想	-10.6771
瞬間に	-10.6771
微	-10.6773
会い	-10.6773
給	-10.6774
面倒	-10.6775
フィット	-10.6778
付いて	-10.6779
かもしれん	-10.6779
に何か	-10.678
でもある	-10.6781
ur	-10.6781
部品	-10.6782
es	-10.6786
回数	-10.6787
そば	-10.6789
▁彼女は	-10.6792
一枚	-10.6793
性を	-10.6794
▁or	-10.6801
共	-10.6802
を守る	-10.6803
編み	-10.6805
ストップ	-10.6806
菅	-10.6807
庁	-10.681
日まで	-10.6811
▁誰か	-10.6811
の写真	-10.6812
▁何も	-10.6812
どっちか	-10.6813
よと	-10.6813
の特徴	-10.6816
あくまで	-10.6818
化学	-10.6819
ラッキー	-10.682
mm	-10.682
これはですね	-10.6821
アティ	-10.6824
ポスト	-10.6824
選ぶ	-10.6827
今日はですね	-10.6828
受験	-10.683
めて	-10.6831
▁of	-10.6833
こー	-10.6833
海の	-10.6835
かつて	-10.6835
開き	-10.6836
撮った	-10.684
トマト	-10.6843
ないですけど	-10.6845
一致	-10.6846
最後は	-10.6846
ただし	-10.6848
のではないか	-10.685
の神	-10.6851
気づいて	-10.6853
やや	-10.6859
真似	-10.6859
お子さん	-10.6859
なんだこれ	-10.6862
返して	-10.6865
える	-10.6867
スロー	-10.6869
個人的には	-10.687
なんだっけ	-10.6873
ですこれ	-10.6875
たとえ	-10.6875
わけだ	-10.6876
経営者	-10.6881
もまあ	-10.6881
所に	-10.6882
結構ね	-10.6885
アーサー	-10.6886
ねぇねぇ	-10.6886
あなたは私が	-10.6886
聞い	-10.6887
証明	-10.6888
できるような	-10.6888
請求	-10.6893
ということでまぁ	-10.6893
:	-10.6894
循環	-10.6894
審査	-10.6894
頑張る	-10.6894
おはようございます	-10.6896
ボル	-10.6896
ここらへん	-10.6897
離婚	-10.6898
時間に	-10.6899
ジャンル	-10.6901
ここにいる	-10.6901
だろうと	-10.6901
楽しめる	-10.6902
戻	-10.6903
量が	-10.6907
かり	-10.6909
いただけます	-10.691
オリジナル	-10.6914
りん	-10.6917
組み	-10.6918
与え	-10.6919
おか	-10.692
って思って	-10.6921
の下	-10.6926
界	-10.6927
聞こえ	-10.6929
そのように	-10.6929
鈴	-10.693
大手	-10.693
そうやって	-10.6932
ってくる	-10.6933
オリンピック	-10.6934
足が	-10.6934
ディー	-10.6934
セミナー	-10.6936
よりは	-10.694
▁st	-10.6948
だったんだ	-10.6949
取	-10.6957
にします	-10.6961
を作った	-10.6961
起こる	-10.6962
おりますので	-10.6964
抜いて	-10.6964
これでも	-10.6964
ことができた	-10.6965
▁何が	-10.6966
ラグ	-10.6968
飲む	-10.6969
使わない	-10.697
しますよ	-10.6972
ti	-10.6976
キャスト	-10.6976
ときの	-10.6977
そして私は	-10.6981
したんですけど	-10.6982
吸収	-10.6983
と思いますね	-10.6984
ポー	-10.6984
を中心に	-10.6985
くださ	-10.6987
の時代	-10.6988
そうなんだ	-10.6988
を置く	-10.6991
降りて	-10.6992
場面	-10.7001
作れ	-10.7003
沈	-10.7003
なんかあの	-10.7005
それについて	-10.7008
を見せ	-10.7009
▁宜しくお願いします	-10.7009
法人	-10.7011
もうこれ	-10.7011
その日	-10.7014
特定	-10.7015
作られた	-10.7016
恵	-10.7016
印刷	-10.7019
財産	-10.7019
が良かった	-10.702
命令	-10.702
▁雨	-10.7021
レーダー	-10.7021
通知	-10.7022
学者	-10.7023
創	-10.7024
借金	-10.7029
らせ	-10.703
あるんで	-10.7033
▁新しい	-10.7034
ありますけれども	-10.7035
言うこと	-10.7036
ショート	-10.7037
少しでも	-10.7037
乗っ	-10.7037
ある意味	-10.7038
黄	-10.7047
起きて	-10.7047
分かりません	-10.7048
ゆる	-10.7053
折れ	-10.7054
手が	-10.7056
提出	-10.7057
ることができます	-10.7057
略	-10.7059
ウィ	-10.7059
くれない	-10.7059
起き	-10.7059
それまで	-10.7061
心臓	-10.7062
is	-10.7063
スクール	-10.7064
マーカー	-10.7065
でもない	-10.7068
前は	-10.7072
荒	-10.7072
申し上げます	-10.7077
▁pr	-10.7077
そのために	-10.7078
▁同	-10.7081
てしまった	-10.7081
してしまった	-10.7083
▁cd	-10.7084
取れない	-10.7089
ラリー	-10.7089
を得	-10.7092
決まって	-10.7094
可能な	-10.7094
述べ	-10.7097
タブ	-10.7097
日が	-10.71
こん	-10.71
見てみましょう	-10.71
返し	-10.71
嵐	-10.7103
ヒント	-10.7104
タワー	-10.7104
ことはできません	-10.7105
選手の	-10.7106
外交	-10.7106
勉強して	-10.7108
ソウル	-10.7108
なっていう	-10.711
こんな感じです	-10.7113
じゃないよ	-10.7113
すればいい	-10.7116
細かい	-10.7118
ためには	-10.7118
香り	-10.712
▁ブーブー言っ	-10.7121
これ以上	-10.7121
踊り	-10.7121
私と	-10.7122
電力	-10.7128
衝撃	-10.713
クリス	-10.7131
にかけて	-10.7131
を書く	-10.7131
株価	-10.7133
▁したがって	-10.7135
くれてる	-10.7136
おりません	-10.7136
たもの	-10.7137
カール	-10.7138
やること	-10.7139
庭	-10.7139
入ってない	-10.7141
こっちも	-10.7142
ング	-10.7143
始まった	-10.7144
取り組み	-10.7144
依頼	-10.7146
否定	-10.7146
死亡	-10.7146
首相	-10.7147
▁com	-10.7147
もやっぱり	-10.7148
なんでも	-10.7148
尾根	-10.7148
反対側	-10.7148
ゲージ	-10.7149
帝国	-10.7152
同じような	-10.7155
だったんで	-10.7158
me	-10.7159
ココ	-10.7159
数値	-10.7161
若者	-10.7161
信じて	-10.7165
関心	-10.7166
せた	-10.7167
信仰	-10.7169
本当にあの	-10.717
▁see	-10.7171
なんかその	-10.718
39	-10.7181
co	-10.7182
遊ぶ	-10.7182
殿	-10.7183
させていただいて	-10.7186
レジ	-10.7186
実況	-10.7189
総理	-10.7189
ko	-10.7192
んど	-10.7192
オイル	-10.7193
お礼	-10.7202
▁どうぞ	-10.7203
ちょっとした	-10.7204
今後の	-10.7206
まいりました	-10.7208
きり	-10.7208
してるんですけど	-10.7209
特殊	-10.7209
ペース	-10.721
かよ	-10.7211
パル	-10.7211
が少ない	-10.7211
ですかねぇ	-10.7212
尻	-10.7214
当たって	-10.7216
貢献	-10.7216
物件	-10.7218
がい	-10.7219
を通じて	-10.7219
が入ってる	-10.7221
宅	-10.7224
大丈夫だ	-10.7225
チュ	-10.7226
束	-10.7228
伊	-10.7229
夜の	-10.7229
乗った	-10.723
同士	-10.7233
いたので	-10.7234
えーっと	-10.7235
すごいね	-10.7236
▁東京	-10.7239
単位	-10.724
忘れて	-10.7241
よろしい	-10.7244
ha	-10.725
の説明	-10.725
の話を	-10.725
いえば	-10.7257
廃止	-10.7258
のお	-10.726
興	-10.7262
▁いろいろ	-10.7263
O	-10.7264
バグ	-10.7264
形成	-10.7264
していません	-10.7266
僕たち	-10.7267
うちは	-10.7267
ばっか	-10.7269
って思う	-10.7269
結び	-10.727
の女	-10.7272
果たして	-10.7272
九	-10.7272
福祉	-10.7272
改革	-10.7274
概念	-10.7274
ネーム	-10.7274
間の	-10.7275
構築	-10.7275
ショック	-10.7276
支持	-10.728
顔が	-10.7283
▁最初の	-10.7284
▁最後	-10.7284
かあ	-10.7285
愛知	-10.7286
手続き	-10.7286
シャツ	-10.7292
ムーン	-10.7292
見ていきましょう	-10.7296
▁ここに	-10.7297
ピッ	-10.7297
になること	-10.7298
▁持って	-10.7298
ないなぁ	-10.7299
ということも	-10.7303
いいと	-10.7303
はあまり	-10.7306
ホー	-10.7306
集め	-10.731
所属	-10.7313
届け	-10.7314
挨拶	-10.7314
券	-10.7315
彩	-10.7317
の時は	-10.7321
um	-10.7324
揺れ	-10.7325
生まれて	-10.7327
の結果	-10.733
▁エ	-10.7331
まった	-10.7332
反映	-10.734
できている	-10.7341
フォー	-10.7342
▁じゃ	-10.7343
いらっしゃいます	-10.7348
属	-10.7349
づくり	-10.7354
▁あなたの	-10.7354
したかった	-10.7354
民族	-10.7355
煙	-10.7357
後期	-10.7358
善	-10.736
セキュリティ	-10.736
パフォーマンス	-10.736
研修	-10.736
もはや	-10.7361
収録	-10.7361
周辺	-10.7365
してもらって	-10.7368
メモ	-10.7369
ポール	-10.7369
何か良い	-10.7369
はるかに	-10.7371
泣き	-10.7376
がねぇ	-10.7376
お風呂	-10.7376
伝統	-10.7382
でまた	-10.7383
と言われる	-10.7384
色んな	-10.7384
連れ	-10.7387
をつけ	-10.7388
開いた	-10.7392
午前	-10.7394
を買った	-10.7396
ふっ	-10.7397
いますね	-10.7397
的なもの	-10.7398
のでまぁ	-10.7399
就職	-10.7399
自転車	-10.7404
俳優	-10.7404
プレッシャー	-10.7404
態度	-10.7404
閉	-10.7406
仮	-10.7407
まあそれ	-10.7408
マート	-10.7413
フェア	-10.7413
どうなるか	-10.7416
高校生	-10.7417
▁30	-10.7419
スペイン	-10.742
▁海	-10.742
続	-10.7424
のところで	-10.7424
気になって	-10.7424
つかない	-10.7425
させます	-10.7428
菓子	-10.7429
なんかねえ	-10.7431
たんですね	-10.7436
追	-10.744
わり	-10.7442
世界を	-10.7445
翻訳	-10.7447
けん	-10.7448
豆腐	-10.7448
諸	-10.7448
ふうに	-10.7449
オレ	-10.745
参考	-10.745
見えます	-10.7451
払って	-10.7452
▁頭	-10.7453
まあそう	-10.7455
ラック	-10.746
壊	-10.7462
指示	-10.7463
と思いますが	-10.7464
▁元	-10.7465
いたい	-10.7465
前回の	-10.7467
会え	-10.7467
というものが	-10.7471
関係者	-10.7471
されていない	-10.7472
地上	-10.7473
より良い	-10.7475
リック	-10.7476
楽器	-10.7476
ましたよ	-10.7479
一般的に	-10.748
内側	-10.748
させてください	-10.748
自体	-10.7483
ボケ	-10.7486
どこから	-10.7486
する方法	-10.7486
と言いますか	-10.7487
唯一	-10.7487
缶	-10.7491
看板	-10.7491
激しい	-10.7492
雇用	-10.7494
富士	-10.7496
お互いに	-10.7496
と言いました	-10.7498
それって	-10.75
申し	-10.7504
個人的に	-10.7505
が何	-10.7505
▁自分	-10.7505
巨大な	-10.7509
食品	-10.7509
声で	-10.7509
低下	-10.7509
ていて	-10.751
るのか	-10.7511
シティ	-10.7512
高評価	-10.7512
伝える	-10.7513
ぇ	-10.7514
インチ	-10.7514
照	-10.7515
見ても	-10.7518
想い	-10.7521
を超える	-10.7521
いこうと思います	-10.7523
日付	-10.7523
寄せ	-10.7524
の長さ	-10.7524
ドロップ	-10.7526
んじゃないの	-10.7526
切っ	-10.7528
ブーバー	-10.7528
da	-10.7529
ヨン	-10.753
ですこれは	-10.7534
ニーズ	-10.7534
ct	-10.7534
そこそこ	-10.7535
トレ	-10.7535
癖	-10.7535
塗装	-10.7535
家は	-10.7536
田さん	-10.7536
ポケット	-10.7536
側面	-10.7537
レーザー	-10.7537
兵士	-10.7537
駐車場	-10.7538
かなって	-10.7538
記者	-10.7541
人材	-10.7542
イラスト	-10.7543
域	-10.7544
▁あった	-10.7545
いきましょうか	-10.7547
でー	-10.7548
の高さ	-10.7551
の影響	-10.7555
って事	-10.7555
すみません	-10.7557
年も	-10.7559
さんです	-10.756
についても	-10.7561
を書いて	-10.7562
は少し	-10.7562
陸	-10.7562
いらない	-10.7562
ふーん	-10.7564
まれ	-10.7568
ベイ	-10.7568
把握	-10.7573
ちゃダメ	-10.7573
とかいう	-10.7576
兼	-10.7577
ぐっ	-10.7579
さを	-10.758
給料	-10.7581
ダッシュ	-10.7581
合成	-10.7581
って言うと	-10.7581
てっ	-10.7587
面で	-10.7589
荷物	-10.7589
高め	-10.7591
が本当に	-10.7595
ぅ	-10.7596
レール	-10.7596
なども	-10.7598
こちらですね	-10.7602
ところから	-10.7603
ものだ	-10.7603
題	-10.7604
を打って	-10.7608
do	-10.7609
L	-10.761
▁僕の	-10.7615
いるから	-10.7616
いかない	-10.7619
点を	-10.7619
仕	-10.762
▁for	-10.762
ie	-10.7621
勝って	-10.7623
してもらう	-10.7624
エピソード	-10.7624
タンパク質	-10.7624
多かった	-10.7625
釣れ	-10.7625
からさ	-10.7625
金融	-10.7625
クル	-10.7626
書類	-10.7627
言葉で	-10.7628
人類	-10.7628
ニング	-10.7628
持ってない	-10.763
せよ	-10.7633
古代	-10.7636
犯人	-10.7636
その時は	-10.7641
かけた	-10.7641
出せる	-10.7642
中には	-10.7643
診断	-10.7646
▁こんな感じ	-10.7648
失礼	-10.765
しておきます	-10.765
かぁ	-10.7653
しないでください	-10.7655
ティア	-10.7656
くださいね	-10.7657
▁外	-10.7661
っていうと	-10.7662
おられる	-10.7663
残念ながら	-10.7664
ドライ	-10.7668
を食べる	-10.7669
これはあの	-10.7673
見れば	-10.7676
700	-10.7676
ことがない	-10.7676
なんだろ	-10.7678
に行きたい	-10.768
わけない	-10.7685
ランキング	-10.7685
マルチ	-10.7686
選び	-10.7687
イエス様	-10.7688
レポート	-10.769
ンって	-10.7691
モール	-10.7698
んでしょう	-10.7698
人です	-10.7699
伝えて	-10.7699
っていうので	-10.77
少なく	-10.7712
ヴ	-10.7713
キッチン	-10.7714
模様	-10.7715
葉っぱ	-10.7715
位は	-10.7715
おき	-10.7721
に戻る	-10.7722
どこでも	-10.7723
ついてる	-10.7726
暗く	-10.7728
問題を	-10.7729
だったんですね	-10.7731
いで	-10.7732
のおかげで	-10.7734
福岡	-10.7734
気がします	-10.7734
時間の	-10.7737
熊	-10.7738
▁母	-10.7739
負ける	-10.7739
やれば	-10.774
投げて	-10.7748
防止	-10.7753
▁俺が	-10.7753
嫌だ	-10.7755
その子	-10.7755
ねえねえ	-10.7757
ディング	-10.7757
つに	-10.7758
そういうもの	-10.7759
あらゆる	-10.7759
じゃないから	-10.7759
寄付	-10.7761
▁絶対	-10.7761
になっていく	-10.7763
メル	-10.7768
行っている	-10.777
みたいなところ	-10.7772
ひとり	-10.7773
人から	-10.7775
お尻	-10.7775
患者さん	-10.7778
芝	-10.778
到着	-10.7783
ライター	-10.7783
を行います	-10.7783
▁的	-10.7784
だけに	-10.7789
でもなんか	-10.7789
を言って	-10.7792
かはい	-10.7792
跡	-10.7794
返す	-10.7795
なんですかね	-10.7796
導	-10.7797
大丈夫か	-10.7803
職業	-10.7805
実装	-10.7806
フィー	-10.7808
柔らかい	-10.7813
物を	-10.7823
測定	-10.7826
すけ	-10.7827
順番	-10.783
郎	-10.7832
楽しみにして	-10.7833
塚	-10.7834
大好きな	-10.7835
振って	-10.7837
いらっしゃい	-10.7839
パーセント	-10.784
ており	-10.7841
対して	-10.7842
っていうもの	-10.7845
ゴム	-10.7845
▁当然	-10.7846
ピット	-10.7847
報酬	-10.7849
桃	-10.7849
マーケット	-10.785
近くに	-10.7852
くれます	-10.7852
様が	-10.7855
ねあと	-10.7856
定義	-10.786
ないのか	-10.7863
でこう	-10.7867
あるじゃないですか	-10.7868
やな	-10.7868
を上げ	-10.7869
の道	-10.7869
いるんだ	-10.787
を目指して	-10.787
増える	-10.787
でさえ	-10.7874
この方	-10.7875
署名	-10.7876
最悪	-10.7879
トゥ	-10.7879
るんだけど	-10.7884
作ってる	-10.7884
タンク	-10.7885
墓	-10.7886
ですねうん	-10.7887
終わりました	-10.7888
初心者	-10.7888
をたくさん	-10.789
年で	-10.7893
規定	-10.7895
寂しい	-10.7895
お金が	-10.7896
なるほどね	-10.7897
咲	-10.7901
ことについて	-10.7901
息を	-10.7903
いたり	-10.7903
触って	-10.7903
敵の	-10.7905
かない	-10.7906
消し	-10.7906
行っちゃう	-10.7907
がないと	-10.7907
してるから	-10.791
収	-10.7911
向上	-10.7911
決	-10.7917
単純に	-10.7917
硬い	-10.7918
離れた	-10.7919
になりますので	-10.7919
メイ	-10.7925
▁青	-10.7925
ティック	-10.7929
目は	-10.7931
滅	-10.7933
が入っ	-10.7934
に出	-10.7935
片付け	-10.7935
われ	-10.7937
いるところ	-10.7937
わかってる	-10.7938
設備	-10.7941
都合	-10.7942
調理	-10.7942
反省	-10.7942
右に	-10.7942
紀	-10.7943
もういい	-10.7943
じゃないですよ	-10.7943
という感じで	-10.7944
it	-10.7947
ないよね	-10.7947
るんです	-10.7949
良いです	-10.7951
出てきます	-10.7952
建て	-10.7952
をかける	-10.7952
多数	-10.7958
直線	-10.796
ツイート	-10.796
出ない	-10.796
数の	-10.7961
本日の	-10.7961
任せ	-10.7962
もありません	-10.7963
に出て	-10.7963
わかりません	-10.7963
を買う	-10.7965
いただけ	-10.7965
クイズ	-10.7965
のメンバー	-10.7967
っていい	-10.7971
実感	-10.7975
減って	-10.7975
説明します	-10.7977
なりたい	-10.7978
こういう感じ	-10.798
ぉ	-10.798
保育	-10.7982
フライ	-10.7985
ってやつ	-10.7986
ファースト	-10.7986
囲	-10.7986
でやって	-10.7987
バッテリー	-10.7987
もそう	-10.7987
を張って	-10.7989
下がり	-10.799
ジョブ	-10.7991
頼	-10.7992
ロープ	-10.7993
ッパ	-10.7993
▁ame	-10.7994
申し上げ	-10.7995
した場合	-10.7996
宜しくお願いします	-10.7996
よくある	-10.7998
▁これらの	-10.7998
合わ	-10.7999
ブレ	-10.8001
ないという	-10.8002
東京都	-10.8002
夕方	-10.8003
がやっぱり	-10.8005
やっぱりね	-10.8006
になりますね	-10.8008
行ったり	-10.8013
どうでしょうか	-10.8016
ほんま	-10.8018
焼	-10.8026
はほとんど	-10.8026
できるか	-10.8027
偽	-10.8029
はそれを	-10.8029
その通り	-10.8032
稲	-10.8032
くって	-10.8033
モニター	-10.8033
攻略	-10.8033
気をつけ	-10.8038
もったいない	-10.8039
ハゲ	-10.8039
聞こえる	-10.804
るので	-10.8042
上司	-10.8046
入れます	-10.805
am	-10.8052
の戦い	-10.8052
近づいて	-10.8053
実家	-10.8054
ってきた	-10.8058
頃に	-10.8058
日曜日	-10.8063
留	-10.8063
部門	-10.8066
困難	-10.8067
ところも	-10.8068
緑の	-10.8069
あるよ	-10.8069
▁各	-10.8071
とおり	-10.8072
くれよ	-10.8072
とはいえ	-10.8073
いいよね	-10.8074
曲げ	-10.8075
外国	-10.8076
ぴったり	-10.8077
冗談	-10.808
招待	-10.808
からこそ	-10.8082
風景	-10.8083
ことを知っている	-10.8085
できるので	-10.8086
はなく	-10.8086
左手	-10.8088
なんかすごい	-10.8095
浅	-10.8095
ましょ	-10.8096
するのか	-10.8098
てくれた	-10.8103
お答え	-10.8106
の顔	-10.811
使えない	-10.8112
頑張ります	-10.8115
いるんです	-10.8119
単に	-10.8121
害	-10.8123
しちゃって	-10.8124
味噌	-10.8126
郡	-10.8126
コンセプト	-10.8126
アンケート	-10.8126
財布	-10.8127
競技	-10.8127
▁愛	-10.8127
いただくと	-10.8128
学校の	-10.8129
経過	-10.813
恥ずかしい	-10.813
ラッシュ	-10.8131
クルー	-10.8131
演じ	-10.8131
慣れて	-10.8132
こんな風に	-10.8133
ますし	-10.8135
いるんですね	-10.8136
キュッ	-10.8139
車で	-10.8142
を言う	-10.8143
高橋	-10.8146
入ってきた	-10.8147
より多くの	-10.8149
出力	-10.8153
ヴァ	-10.8157
▁ma	-10.816
届く	-10.816
円で	-10.8162
ところまで	-10.8165
un	-10.8165
入手	-10.8166
るんですか	-10.8166
おっしゃった	-10.8167
質問を	-10.8172
H	-10.8173
網	-10.8173
滞在	-10.8173
偶然	-10.8173
求め	-10.8174
建築	-10.8174
クラウド	-10.8174
のせい	-10.8174
成立	-10.8176
シールド	-10.8179
ゾンビ	-10.818
そうだよね	-10.8181
な人	-10.8182
ようなもの	-10.8184
ふと	-10.8185
ウッド	-10.8188
あるんですか	-10.8188
ご質問	-10.8188
活	-10.8189
グー	-10.8189
らが	-10.8191
いますので	-10.8191
いうふうに	-10.8192
子どもたち	-10.8193
ともに	-10.8193
198	-10.8194
隠れ	-10.8194
編成	-10.8197
120	-10.8198
分解	-10.8199
が好きな	-10.8199
んじゃないかなと	-10.82
ことない	-10.8205
ヒロ	-10.8207
する必要がある	-10.8208
割れ	-10.8209
落ちた	-10.8215
どころ	-10.8216
においては	-10.8218
溝	-10.8221
▁voodoo	-10.8221
監視	-10.8221
だろうな	-10.8221
成績	-10.8221
財政	-10.8221
開封	-10.8221
醤油	-10.8221
した方がいい	-10.8221
田舎	-10.8222
ものと	-10.8222
要因	-10.8223
野郎	-10.8224
テロ	-10.8224
あっても	-10.8231
の紹介	-10.8233
帰ってきた	-10.8235
を得て	-10.8236
もできる	-10.8237
ずら	-10.8244
彼氏	-10.8249
無い	-10.8249
と同時に	-10.8252
だったん	-10.8258
を使い	-10.8258
するとき	-10.8259
麦	-10.8265
なところ	-10.8265
減少	-10.8267
見つけた	-10.8267
go	-10.8267
公演	-10.8269
踏み	-10.8269
統計	-10.8271
払う	-10.8271
試み	-10.8272
濃度	-10.8272
日本が	-10.8272
児	-10.8278
出来事	-10.828
かかり	-10.8281
コマ	-10.8282
悪くない	-10.8282
役割	-10.8285
強さ	-10.8286
寸	-10.829
それに対して	-10.8291
バーガー	-10.8293
捉え	-10.8294
水分	-10.8295
そしてその	-10.8299
▁ko	-10.8299
何回も	-10.8301
なか	-10.8301
くれました	-10.8302
メス	-10.8302
la	-10.8304
やすく	-10.8306
定期	-10.8309
知り	-10.8309
危機	-10.8311
阿	-10.8311
生の	-10.8311
我慢	-10.8312
やっていきましょう	-10.8314
アルバム	-10.8316
工程	-10.832
と思いますけど	-10.8322
あるんだけど	-10.8322
ッシュ	-10.8323
みたいで	-10.8324
ではなかった	-10.8326
そうだけど	-10.8326
やる気	-10.8329
判定	-10.8329
の状況	-10.8332
mo	-10.8333
戦後	-10.8335
を考えて	-10.8335
支払い	-10.8339
ですねこちら	-10.8341
張って	-10.8341
の場所	-10.8342
▁その時	-10.8343
んですよねー	-10.8344
犯罪	-10.8345
金を	-10.8346
のもと	-10.835
75	-10.8351
とった	-10.8354
▁up	-10.8354
一方で	-10.8356
入ります	-10.8358
遺産	-10.8358
ヘア	-10.8358
▁so	-10.8358
異常	-10.8359
カウント	-10.8359
とく	-10.836
▁プロ	-10.836
これぐらい	-10.8361
泡	-10.8362
助けて	-10.8363
畳	-10.8363
仁	-10.8363
美容	-10.8363
かも知れ	-10.8363
さようなら	-10.8364
しますが	-10.8366
エッジ	-10.8367
感じました	-10.8368
ちゃいけない	-10.8372
そうだから	-10.8378
処分	-10.8379
もすごい	-10.838
そのうち	-10.8381
減ら	-10.8381
くださった	-10.8383
ができて	-10.8383
を含む	-10.8385
程	-10.8387
借り	-10.8388
知っ	-10.8389
研究所	-10.8389
独自の	-10.8391
カラ	-10.8392
▁ずっと	-10.8392
最近の	-10.8393
すん	-10.8395
部分を	-10.8395
グレ	-10.8396
知ら	-10.8397
複雑	-10.8398
だした	-10.8398
専用	-10.84
テンション	-10.8404
知りたい	-10.8406
進めて	-10.8406
感じが	-10.8407
ないんだよ	-10.841
脂肪	-10.8411
手前	-10.8414
オーダー	-10.8415
ここにある	-10.8416
いただきまして	-10.8416
今すぐ	-10.8419
やってい	-10.8423
でへ	-10.8426
壊れ	-10.8427
したから	-10.8427
ブース	-10.8427
ba	-10.8428
ちょうどいい	-10.8428
なってきた	-10.8428
部長	-10.8429
いきますよ	-10.8431
こっちゃ	-10.8434
誰もが	-10.8436
▁素晴らしい	-10.8436
口を	-10.8444
トランプ	-10.8444
会員	-10.8447
方式	-10.8447
we	-10.8447
になっ	-10.8448
運命	-10.8448
を読んで	-10.8452
てね	-10.8454
シェル	-10.8459
照明	-10.8461
消	-10.8461
崩壊	-10.8461
んや	-10.8462
帽子	-10.8463
ないと思います	-10.8464
隙間	-10.8465
ねまた	-10.8466
やす	-10.8467
私には	-10.8467
追って	-10.8468
誰かに	-10.8469
戦車	-10.8469
新たに	-10.847
ごと	-10.8471
は誰	-10.8471
そういうことで	-10.8473
インストール	-10.8475
ノン	-10.8476
最新	-10.8478
ることができる	-10.8479
につきましては	-10.8482
ランナー	-10.8485
蛇	-10.8486
くださる	-10.8488
史	-10.8488
所有	-10.8488
at	-10.8489
登	-10.8491
金曜日	-10.8491
ポイントは	-10.8493
をしました	-10.8493
を行い	-10.8494
せません	-10.8496
県の	-10.8497
あるもの	-10.8498
談	-10.8502
ウイ	-10.8508
舐め	-10.8508
ミサイル	-10.8508
合意	-10.851
中です	-10.8512
パイプ	-10.8513
に基づいて	-10.8514
を探して	-10.8514
優	-10.8516
たちに	-10.8517
の底	-10.8517
もこの	-10.8517
やっています	-10.8519
バイバイ	-10.852
アルファ	-10.8522
▁ええええええええええええ	-10.8526
すごいですね	-10.8527
といっても	-10.8527
が付いて	-10.8533
仕事が	-10.8534
望	-10.8535
貼っ	-10.8535
あこれ	-10.854
冒頭	-10.8543
ですそして	-10.8544
ようにして	-10.8545
の間で	-10.8546
ランチ	-10.8547
原則	-10.8548
煮	-10.8549
形の	-10.855
わから	-10.8552
秘	-10.8554
の方々	-10.8555
ポロ	-10.8555
博	-10.8556
之	-10.8557
承認	-10.8557
没	-10.8557
一日	-10.8558
地震	-10.8558
王様	-10.8559
を見ている	-10.8559
ピッチャー	-10.856
会の	-10.8565
同時	-10.8566
いいでしょ	-10.8568
年金	-10.8569
回避	-10.8571
ッキー	-10.8571
スの	-10.8571
▁la	-10.8572
なんだって	-10.8572
巨大	-10.8572
今までの	-10.8574
2021	-10.8575
だからその	-10.8575
身体	-10.8577
はなかった	-10.8577
に住んで	-10.858
んだろうな	-10.8581
ファイ	-10.8583
情	-10.8585
あげると	-10.8586
だれ	-10.8588
こちらで	-10.8588
スペ	-10.8589
女の	-10.859
タイミングで	-10.8593
タップ	-10.8597
でやる	-10.8598
メント	-10.8599
お願いしまーす	-10.8599
向いて	-10.8603
サム	-10.8604
宗	-10.8605
は私が	-10.8605
措置	-10.8606
隆	-10.8606
彦	-10.8606
脇	-10.8606
消防	-10.8607
相手は	-10.8607
革命	-10.8607
んでも	-10.8608
育	-10.8609
▁花	-10.8609
アンチ	-10.8609
植え	-10.8613
スー	-10.8616
れてる	-10.8616
に入れ	-10.8618
今や	-10.8619
効果が	-10.8619
スタン	-10.8619
は私の	-10.8622
はいえーと	-10.8622
スルー	-10.8623
出てこない	-10.8624
が出てきて	-10.8625
の会	-10.8625
灯	-10.8627
だめ	-10.8632
ズレ	-10.8633
ルド	-10.8633
来い	-10.8634
やってない	-10.8635
さんで	-10.8638
同社	-10.8639
動きを	-10.8639
を行って	-10.8646
組み合わせ	-10.8646
去年の	-10.8648
時半	-10.8648
きれいに	-10.865
残った	-10.865
ように見える	-10.8651
戦で	-10.8651
あなたはそれを	-10.8652
厳	-10.8653
お送り	-10.8654
登り	-10.8657
を与え	-10.8661
来てる	-10.8662
ハム	-10.8666
最近は	-10.8669
か分からない	-10.8673
になれる	-10.8673
しょ	-10.8674
料金	-10.8678
の質問	-10.868
パチ	-10.8684
つを	-10.8685
かもしれ	-10.8686
動きが	-10.8689
男が	-10.869
フォ	-10.869
ちゃうと	-10.8691
乗る	-10.8692
考えたら	-10.8693
んじゃねぇ	-10.8695
の人たち	-10.8697
ろー	-10.8698
みんなの	-10.8699
じゃないの	-10.87
喋って	-10.8701
国が	-10.8701
チー	-10.8701
するつもりです	-10.8704
ついている	-10.8704
町の	-10.8705
剛	-10.8705
にもかかわらず	-10.8705
ボリューム	-10.8705
▁this	-10.8705
グローバル	-10.8705
負荷	-10.8705
ウォッチ	-10.8705
に行きました	-10.8705
行きました	-10.8706
避難	-10.8707
▁なかなか	-10.8707
塔	-10.8707
ですね今	-10.8712
後ろの	-10.8713
があったり	-10.8713
者を	-10.8714
展	-10.8715
感じの	-10.8716
ダメな	-10.8716
の本	-10.872
ないでしょ	-10.8724
売る	-10.8725
まあこういう	-10.8725
ヴァン	-10.8735
ようになりました	-10.8737
臨	-10.8737
それは私が	-10.8738
するっていう	-10.8739
始めます	-10.8741
あるけど	-10.8743
委員	-10.8744
吹	-10.8745
納	-10.8746
狂	-10.8747
牧	-10.8749
移	-10.875
li	-10.8752
秀	-10.8753
初めての	-10.8754
充電	-10.8754
マネージャー	-10.8755
緊急	-10.8755
トンネル	-10.8755
ウィン	-10.8755
幸福	-10.8756
が必要な	-10.8756
買い物	-10.8757
価値観	-10.8757
無理だ	-10.8757
あったんですけど	-10.8757
株式会社	-10.8757
は多分	-10.876
が入っている	-10.8761
ブーツ	-10.8762
発達	-10.8764
北朝鮮	-10.8767
フレ	-10.8772
と思うよ	-10.8772
超えて	-10.8772
特性	-10.8773
場所が	-10.8775
撮る	-10.8775
救い	-10.8776
ところでございます	-10.8778
長期	-10.8779
もうちょい	-10.878
どうせ	-10.878
終え	-10.8781
ごろ	-10.8783
を与えて	-10.8783
こいつは	-10.8784
ちゅ	-10.8785
/	-10.8786
▁なあ	-10.8786
してね	-10.879
苦	-10.8791
lo	-10.8792
がち	-10.8795
神は	-10.8797
勝てる	-10.8797
担	-10.8798
分間	-10.88
砲	-10.88
拡張	-10.8801
愛の	-10.8801
も全然	-10.8802
りゃ	-10.8804
峰	-10.8805
弊社	-10.8805
得点	-10.8806
晩	-10.8806
▁北	-10.8808
タウン	-10.8808
会社に	-10.8811
おいた	-10.8814
カ所	-10.8815
体調	-10.8815
あるのか	-10.882
丁寧に	-10.8824
充実	-10.8825
始まる	-10.8825
してみました	-10.8827
がありますね	-10.8828
優秀	-10.8829
▁日本の	-10.8831
であるため	-10.8833
の通り	-10.8838
ちょっとこれ	-10.8838
逮捕	-10.884
もあるので	-10.884
するのに	-10.8841
そいつ	-10.885
マイル	-10.8851
闘	-10.8851
徹底	-10.8852
者さん	-10.8852
羅	-10.8853
あなたも	-10.8854
奇跡	-10.8855
ナイフ	-10.8856
プレーヤー	-10.8857
兵器	-10.8857
ひっ	-10.8858
ありますが	-10.886
▁もう一度	-10.886
の方を	-10.886
でもその	-10.8861
主な	-10.8862
生命	-10.8863
元々	-10.8865
労働者	-10.8872
してるの	-10.8874
焼いて	-10.8874
本番	-10.8875
我々の	-10.8875
見つめ	-10.8879
▁手	-10.8881
に来	-10.8881
撃	-10.8882
済み	-10.8882
はあります	-10.8882
今後も	-10.8883
そうした	-10.8883
帰	-10.8886
るわけ	-10.8887
ヤード	-10.8888
山口	-10.8888
学んで	-10.8889
軍の	-10.8891
事前に	-10.8894
ゲームを	-10.8896
強力な	-10.8896
たいな	-10.8898
亭	-10.8899
抜く	-10.8901
はどんな	-10.8902
豪	-10.8902
昆布	-10.8905
公共	-10.8907
ハッピー	-10.8907
わけですけれども	-10.8907
調節	-10.8907
風が	-10.8912
不正	-10.8913
なんでね	-10.8913
発明	-10.8914
かもしれないですけど	-10.8919
男子	-10.892
の種類	-10.892
まあいい	-10.892
形に	-10.8921
▁すでに	-10.8922
ビス	-10.8922
nd	-10.8923
を出し	-10.8925
を見せて	-10.8927
部分は	-10.8927
きましたね	-10.8932
方針	-10.8933
真の	-10.8933
▁tv	-10.8933
先端	-10.8936
ニャ	-10.8937
入っています	-10.8937
まえ	-10.8939
されること	-10.894
アラ	-10.894
になっちゃった	-10.8943
アブ	-10.8943
のお話	-10.8945
してくれて	-10.8946
外れ	-10.8947
は私	-10.8947
明確に	-10.8948
の皆様	-10.8951
を見ながら	-10.8954
アフリカ	-10.8954
桁	-10.8956
瓶	-10.8956
宣伝	-10.8956
本で	-10.8957
メガネ	-10.8957
▁ja	-10.896
欲しかった	-10.896
心地	-10.8961
鈴木	-10.8963
まあでも	-10.8964
一つ一つ	-10.8966
売っ	-10.8966
日常	-10.8968
頂ければと思います	-10.897
不幸	-10.8971
まぁ一応	-10.8971
io	-10.8971
ca	-10.8971
cm	-10.8972
ねぇー	-10.8975
お前の	-10.8975
人数	-10.898
▁ac	-10.8981
一人一人	-10.8982
状態に	-10.8982
はっはー	-10.8982
区の	-10.8983
フィル	-10.8985
を打ち	-10.8987
参考に	-10.8988
おかげで	-10.8988
の変化	-10.8989
右の	-10.8989
はずだ	-10.8991
っす	-10.8992
を見てみましょう	-10.8993
丁	-10.8993
乗ってる	-10.8993
ってこれ	-10.8995
すぎた	-10.8995
様は	-10.8997
するため	-10.8997
サーバー	-10.8999
と言われ	-10.8999
言っている	-10.9
癒し	-10.9002
さら	-10.9002
ヤン	-10.9002
ってください	-10.9004
細かく	-10.9004
競馬	-10.9005
虚	-10.9006
よろしくお願い	-10.9006
頬	-10.9007
こだわり	-10.9007
覚醒	-10.9007
収納	-10.9007
まち	-10.9008
伊勢	-10.9008
優しく	-10.9008
及び	-10.9008
とうとう	-10.9008
▁big	-10.9008
皆様に	-10.9011
的で	-10.9013
からん	-10.9013
どっちも	-10.9014
子様	-10.9014
がよく	-10.9015
になるか	-10.9017
寿命	-10.9017
▁まあ今	-10.902
あた	-10.902
チェンジ	-10.9023
込め	-10.9023
▁猫	-10.9028
おっしゃる	-10.9028
2018	-10.9029
見ながら	-10.9031
全体的に	-10.9034
全体を	-10.9036
訴え	-10.9039
挙げ	-10.9042
暴	-10.9044
▁アン	-10.9044
個の	-10.9046
だからこそ	-10.9048
なんですけどね	-10.9048
といいですね	-10.905
上手	-10.905
歳で	-10.9055
卒	-10.9055
アス	-10.9056
議	-10.9057
▁最初に	-10.9058
セッション	-10.9058
血液	-10.9059
解散	-10.9059
死に	-10.9061
そのもの	-10.9062
楽し	-10.9062
ほう	-10.9064
ミスター	-10.9064
上手く	-10.9066
に良い	-10.9067
まあこれ	-10.907
作戦	-10.9071
中学	-10.9073
子供たち	-10.9074
境	-10.9075
大型	-10.9075
わかりやすく	-10.9078
漏れ	-10.9078
いじ	-10.9079
が大きい	-10.9083
は全部	-10.9083
の作品	-10.9084
ウル	-10.9088
かま	-10.9091
それはあなたが	-10.9091
あっは	-10.9092
夏の	-10.9095
の部屋	-10.9095
99	-10.9096
うー	-10.9097
日で	-10.9099
ヘル	-10.9101
いるんですよ	-10.9101
飛	-10.9104
ビア	-10.9106
射	-10.9106
智	-10.9111
新幹線	-10.9112
ようですね	-10.9112
プリント	-10.9112
アップデート	-10.9113
低く	-10.9113
奥さん	-10.9114
民主党	-10.9115
間違いない	-10.9116
マンション	-10.9117
びっくりした	-10.9121
よくない	-10.9122
なーん	-10.9122
グラン	-10.9126
もすごく	-10.9127
改	-10.9128
検	-10.9128
た時	-10.9128
とか言って	-10.9129
につながる	-10.913
情報が	-10.9131
音は	-10.9131
民間	-10.9132
このビデオ	-10.9135
なんでしょ	-10.9137
快	-10.9141
悪いこと	-10.9142
撮っ	-10.9144
出版	-10.9148
氏の	-10.9154
豪華	-10.9154
5%	-10.9155
いん	-10.9156
▁子供	-10.9156
はどこ	-10.9157
こういうところ	-10.9157
ed	-10.9158
っていう感じで	-10.9159
飲	-10.9159
歓迎	-10.9161
中は	-10.9161
ハッ	-10.9161
シフト	-10.9162
刃	-10.9162
活動を	-10.9162
玄関	-10.9162
認定	-10.9163
この先	-10.9163
てきました	-10.9164
ts	-10.9164
頑張った	-10.9165
▁ca	-10.9167
盗	-10.9167
のかもしれない	-10.9169
最終的には	-10.9169
▁はいえー	-10.917
お花	-10.9172
といいます	-10.9173
取り付け	-10.9175
になれば	-10.9175
気に入って	-10.9176
してみましょう	-10.9176
チャート	-10.9179
やれる	-10.9184
負けて	-10.9187
なのは	-10.9187
の研究	-10.9196
進み	-10.9196
それはもう	-10.9198
たいです	-10.9199
は大	-10.92
しょう	-10.9201
の先生	-10.9203
仮に	-10.9205
外部	-10.9206
外から	-10.921
があるんです	-10.9211
冒険	-10.9214
はぁっはぁっはぁっ	-10.9214
銘柄	-10.9214
帰った	-10.9215
同じく	-10.9215
刑事	-10.9216
べく	-10.9216
マイナー	-10.9218
投げる	-10.9218
広島	-10.922
かこれ	-10.922
per	-10.9221
を打つ	-10.9221
同意	-10.9221
お待ち	-10.9224
法案	-10.9224
ロボ	-10.9227
劇場	-10.9228
抜ける	-10.9228
毎週	-10.9231
ことを意味します	-10.9231
が変わる	-10.9232
も多い	-10.9234
ステーション	-10.9235
回目の	-10.9237
ごめんね	-10.9239
ネー	-10.9241
目の前に	-10.9244
適	-10.9244
店の	-10.9244
地面	-10.9245
ほとんどの	-10.9246
38	-10.9246
どんな感じ	-10.9248
先行	-10.925
なこれ	-10.925
僕に	-10.9256
語って	-10.9256
得た	-10.9258
々と	-10.9259
実に	-10.926
曲を	-10.9261
なんじゃ	-10.9262
伸びて	-10.9262
上げた	-10.9264
医学	-10.9265
かなあ	-10.9266
すなわち	-10.9266
カスタム	-10.9266
をすると	-10.9267
マッサージ	-10.9267
おめでとうございます	-10.9268
会いたい	-10.9271
チューブ	-10.9272
提示	-10.9274
方から	-10.9274
ホン	-10.9274
男は	-10.9283
2017	-10.9284
者と	-10.9292
刺し	-10.9292
っちゃった	-10.9294
キット	-10.9295
私はあなたの	-10.9298
ボルト	-10.93
してきて	-10.93
床に	-10.9301
無料で	-10.9304
不明	-10.9304
のがいい	-10.9305
磯	-10.9306
すごくいい	-10.9306
入ら	-10.9307
と言われています	-10.9307
たところ	-10.9308
は何か	-10.931
称	-10.931
ってなんか	-10.9312
チームの	-10.9313
の色	-10.9314
自己紹介	-10.9314
決まった	-10.9315
段階で	-10.9317
決勝	-10.9317
今日はね	-10.9318
冠	-10.9318
ピョン	-10.9319
プラットフォーム	-10.9319
ベトナム	-10.9319
ライバル	-10.932
逃	-10.932
アルコール	-10.9321
それなら	-10.9321
信用	-10.9322
自治体	-10.9323
ってか	-10.9324
こんな感じですね	-10.9324
こちらの方	-10.9327
アンダー	-10.9328
りして	-10.9329
周りに	-10.933
つって	-10.9332
ローズ	-10.9333
あるんですよね	-10.9334
いるような	-10.9335
を食べ	-10.9336
怒って	-10.9336
んですけどもまぁ	-10.9337
手法	-10.9337
長い間	-10.9338
を食べて	-10.9338
▁君	-10.9339
あったり	-10.9339
▁ちょうど	-10.9341
▁aa	-10.9341
カードを	-10.9345
などに	-10.9345
言葉が	-10.9346
今では	-10.9347
ああああああああああああ	-10.9347
ピーク	-10.9349
がこう	-10.935
よっていう	-10.9355
名前は	-10.9356
戻り	-10.9359
に出る	-10.936
時まで	-10.9361
難しく	-10.9367
俺ら	-10.9368
敬	-10.9369
エンディング	-10.9372
雑魚	-10.9375
野党	-10.9375
この時	-10.9375
俺たち	-10.9378
じゃあもう	-10.938
勢い	-10.9382
聞きたい	-10.9382
▁50	-10.9382
ウォン	-10.9382
たま	-10.9384
懐かしい	-10.9385
▁一緒に	-10.9388
に行くと	-10.939
前田	-10.9393
って結構	-10.9393
な感じで	-10.9395
重量	-10.9396
名の	-10.9397
ニョ	-10.9397
考慮	-10.9398
ガル	-10.9399
会った	-10.94
演出	-10.9401
興味深い	-10.9402
練	-10.9403
ol	-10.9405
扉	-10.9406
なーって	-10.9406
うんっ	-10.9408
やま	-10.941
サティ	-10.941
ほい	-10.9411
いったん	-10.9412
一部の	-10.9412
気づいた	-10.9412
迫	-10.9412
アク	-10.9412
さんこんばんは	-10.9413
そんな感じで	-10.9414
▁一つ	-10.9416
保持	-10.9418
象	-10.9419
付けて	-10.9419
やべ	-10.9419
数え	-10.942
たりして	-10.942
るという	-10.942
興奮	-10.9422
ぼく	-10.9423
まあ今	-10.9423
いっしょ	-10.9424
黙って	-10.9424
K	-10.9425
さんを	-10.9425
普及	-10.9425
羊	-10.9425
根拠	-10.9425
実績	-10.9425
酸素	-10.9426
引き出し	-10.943
ワンちゃん	-10.9431
祝福	-10.9431
書いてる	-10.9431
強かった	-10.9434
悪化	-10.9434
を迎え	-10.9434
44	-10.9435
サラ	-10.9437
っていうことが	-10.9438
ゲル	-10.9448
十分な	-10.9448
するから	-10.9448
高齢者	-10.9451
重視	-10.9452
あるんですけれども	-10.9452
いけません	-10.9455
しゅ	-10.9456
事項	-10.9458
なくていい	-10.9466
適切な	-10.9467
見られる	-10.9472
発揮	-10.9472
明るく	-10.9473
4000	-10.9474
キリ	-10.9474
サル	-10.9476
こちらです	-10.9477
おきましょう	-10.9477
抹茶	-10.9479
勤務	-10.9479
改造	-10.9479
海岸	-10.9479
派遣	-10.9479
工業	-10.9481
項	-10.9483
なくなっちゃう	-10.9488
さと	-10.949
的にも	-10.9492
ふう	-10.9492
間違え	-10.9492
たのが	-10.9492
完全な	-10.9496
歩い	-10.9499
きまして	-10.95
▁en	-10.9503
みたいなの	-10.9503
うま	-10.9504
分類	-10.9505
あれが	-10.9506
備	-10.9508
おー	-10.9509
優れた	-10.951
育って	-10.951
形状	-10.9512
と後	-10.9512
見つけ	-10.9513
今年も	-10.9514
りました	-10.9516
刺	-10.952
場所は	-10.9522
位の	-10.9523
th	-10.9524
と言われて	-10.9526
▁今度は	-10.9526
ic	-10.9527
ではないか	-10.9528
安心して	-10.9529
はこう	-10.9529
年生の	-10.953
いいと思う	-10.9532
アピール	-10.9532
才能	-10.9532
札幌	-10.9532
収益	-10.9532
▁おそらく	-10.9533
文句	-10.9533
コンビ	-10.9534
積極的に	-10.9534
交代	-10.9534
なくてもいい	-10.9536
の下で	-10.9537
引く	-10.9538
ソニー	-10.9538
ver	-10.954
裁	-10.9543
お伝え	-10.9543
やっぱりこう	-10.9543
うか	-10.9545
ランダム	-10.9546
相場	-10.9546
んだけどね	-10.9546
状況で	-10.9548
専門家	-10.9548
はあなたの	-10.955
ひろ	-10.955
▁であの	-10.9551
紹介して	-10.9554
付く	-10.9554
じゃーん	-10.9556
旗	-10.9556
▁えー	-10.9557
女性は	-10.9559
一杯	-10.956
が少し	-10.9561
▁世界	-10.9563
イヤ	-10.9567
▁前回	-10.9567
気持ちいい	-10.9567
ないのに	-10.957
集まり	-10.9572
本気	-10.9573
苦手	-10.9574
以前に	-10.9574
ツリー	-10.9574
受賞	-10.9575
巻いて	-10.9578
の意味	-10.9579
無限	-10.958
▁早く	-10.9581
個別	-10.9581
いただければと思います	-10.9582
だこれ	-10.9582
らっしゃる	-10.9583
クエスト	-10.9584
に応じて	-10.9586
放置	-10.9587
枚目	-10.9587
ご説明	-10.9587
してました	-10.9588
付近	-10.959
ズの	-10.9593
滑り	-10.9593
原発	-10.9594
機構	-10.9595
観察	-10.9596
ハンドル	-10.9597
いたしまして	-10.96
フック	-10.9604
流れて	-10.9607
年前に	-10.9611
リース	-10.9612
らい	-10.9613
ポスター	-10.9613
似てる	-10.9613
後ろから	-10.9613
至	-10.9614
好きだった	-10.9616
コメントを	-10.9617
▁犬	-10.9618
亜	-10.9618
貴重な	-10.962
仕方ない	-10.9622
が一つ	-10.9625
俺に	-10.9627
圧力	-10.9629
どこが	-10.9632
▁too	-10.9632
ケット	-10.9633
ch	-10.9633
どうしたの	-10.9637
当初	-10.964
物事	-10.964
幻	-10.964
ドラッグ	-10.9641
丘	-10.9641
収穫	-10.9641
地獄	-10.9642
教科書	-10.9642
臭	-10.9647
イカ	-10.9648
終わらせ	-10.9649
ユー	-10.965
小学生	-10.965
なれ	-10.9651
ことから	-10.9654
って言われた	-10.9656
先日	-10.9656
を送って	-10.9661
しゃべる	-10.9663
カッター	-10.9665
やってて	-10.9665
でしたっけ	-10.9666
▁bar	-10.9667
面積	-10.9668
じゃあね	-10.9673
動かない	-10.9675
はしない	-10.9676
つめ	-10.9678
カメ	-10.9678
しつつ	-10.9678
思っております	-10.9679
キラー	-10.9679
早めに	-10.968
じゃあちょっと	-10.968
▁今から	-10.9681
いいや	-10.9682
水の	-10.9683
の中から	-10.9684
簡単です	-10.9687
だからもう	-10.9687
バイオ	-10.9688
手順	-10.9689
▁まぁちょっと	-10.9689
やってくる	-10.9691
のでその	-10.9691
慶	-10.9692
答えは	-10.9692
マリオ	-10.9692
近くの	-10.9694
圏	-10.9695
アクティブ	-10.9695
スケジュール	-10.9695
スピーカー	-10.9695
これまでの	-10.9697
話している	-10.9698
曲が	-10.9699
というね	-10.97
別れ	-10.9701
彼らに	-10.9702
使っ	-10.9702
貴	-10.9703
ないぞ	-10.9704
てて	-10.9704
をしていた	-10.9706
神戸	-10.9707
行ったほうがいい	-10.9708
その他の	-10.9709
ディスク	-10.971
に入り	-10.9711
会える	-10.9712
使われる	-10.9713
をご覧	-10.9713
生んだ	-10.9717
なかったんですけど	-10.9717
問題が	-10.9726
この辺で	-10.9727
伝説	-10.9727
と言い	-10.973
緩	-10.9733
おくと	-10.9736
ドラム	-10.9736
要は	-10.9738
▁お願いします	-10.9739
ゼル	-10.9739
くなった	-10.974
をしたい	-10.9741
歌を	-10.9744
▁心	-10.9744
負けた	-10.9744
芽	-10.9746
の使い方	-10.9747
研	-10.9748
するんですけど	-10.9749
の曲	-10.975
幽霊	-10.975
守備	-10.9751
学んだ	-10.9751
発想	-10.9751
映って	-10.9751
香港	-10.9752
現金	-10.9753
祖母	-10.9753
が多かった	-10.9754
になってきます	-10.9754
▁てい	-10.9754
辛	-10.9754
混	-10.9756
精度	-10.9757
母の	-10.976
レーション	-10.9761
ジェル	-10.9761
起こった	-10.9764
化した	-10.9767
れました	-10.9767
度も	-10.9768
チャージ	-10.9769
お前ら	-10.9769
崩れ	-10.977
はいえ	-10.9771
ある日	-10.9772
▁普通に	-10.9773
年くらい	-10.9776
しかった	-10.9776
再度	-10.9776
でもあの	-10.9777
なのでまぁ	-10.9779
分かり	-10.978
とかあと	-10.978
を聞く	-10.9784
いうのは	-10.9786
酢	-10.9786
でそれ	-10.9786
紹介した	-10.9788
明日の	-10.9788
たし	-10.9788
複数の	-10.9791
とすると	-10.9793
そういうのが	-10.9794
お手	-10.9796
ea	-10.9797
感じた	-10.9797
並んで	-10.9798
さや	-10.9799
言いません	-10.9801
を教えて	-10.9801
中でも	-10.9803
くて	-10.9803
福島	-10.9803
お湯	-10.9803
也	-10.9805
スプレー	-10.9805
輸送	-10.9806
ではですね	-10.9806
稼ぐ	-10.9806
という意味	-10.9806
してますね	-10.9808
ちょっとこう	-10.9809
んんん	-10.9809
くれば	-10.9809
それだけで	-10.981
出さ	-10.981
ってない	-10.9811
カート	-10.9811
なんて言う	-10.9813
しましたが	-10.9814
▁全部	-10.9818
毎月	-10.9818
いいかなと思います	-10.982
ニコ	-10.982
身長	-10.9822
賛成	-10.9822
ボラ	-10.9826
]	-10.9827
下がる	-10.9828
打ち上げ	-10.983
がどんどん	-10.983
されると	-10.9831
魔女	-10.9831
頂いて	-10.9831
挙	-10.9836
れっ	-10.9836
つきました	-10.9838
大勢	-10.9838
を求める	-10.984
▁oo	-10.984
アルミ	-10.984
の人々	-10.984
48	-10.9841
マッ	-10.9841
容量	-10.9842
os	-10.9842
お米	-10.9842
▁夏	-10.9843
フィン	-10.9844
おきたい	-10.9845
だったんです	-10.9849
確認して	-10.9851
昇	-10.9854
金の	-10.9854
そのあたり	-10.9855
てー	-10.9857
拳	-10.986
ずいぶん	-10.9861
di	-10.9861
自慢	-10.9861
おっさん	-10.9861
の下に	-10.9863
ッキング	-10.9863
書かれている	-10.9864
数学	-10.9864
混ぜて	-10.9865
怪しい	-10.9866
どんなに	-10.9866
▁goo	-10.9867
ことが多い	-10.987
もらえれば	-10.9871
えっとまぁ	-10.9872
働いている	-10.9872
が出てきた	-10.9873
先生に	-10.9874
人が多い	-10.9874
かれ	-10.9874
ホンダ	-10.9875
使わ	-10.9876
キープ	-10.9878
だからまあ	-10.9882
を求め	-10.9883
の例	-10.9883
聞いてください	-10.9884
職場	-10.9884
それの	-10.9885
ネギ	-10.9887
左の	-10.9887
毎	-10.9889
何回	-10.9889
義務	-10.989
止める	-10.9895
▁good	-10.99
ai	-10.9901
組み立て	-10.9905
するということ	-10.9905
これって	-10.9905
あるの	-10.9906
中学生	-10.9907
man	-10.9907
だり	-10.9911
くれたら	-10.9911
ちょっと今	-10.9912
ベリー	-10.9914
を超え	-10.9915
セカンド	-10.9917
売れる	-10.9917
嫉妬	-10.9917
穂	-10.9917
顧客	-10.9917
エレ	-10.9917
不可能	-10.992
タクシー	-10.992
ナイ	-10.992
韓国の	-10.9921
方法は	-10.9921
物理	-10.9921
というかね	-10.9922
カッ	-10.9925
もしれない	-10.9926
天国	-10.9926
って言われる	-10.9926
性の	-10.9927
生き物	-10.9928
しようか	-10.993
があるんですね	-10.9932
アム	-10.9932
危険な	-10.9936
メモリ	-10.9937
分離	-10.9938
るんだよ	-10.9939
憧れ	-10.994
▁あああああ	-10.9942
旦那	-10.9942
もっ	-10.9942
まさか	-10.9943
複数	-10.9944
変わってくる	-10.9945
匂い	-10.9946
たのか	-10.9947
見せる	-10.9948
▁ha	-10.9951
ねえっと	-10.9952
残りの	-10.9953
いいんだよ	-10.9953
なさそう	-10.9958
ga	-10.996
ってあの	-10.996
を見つけて	-10.9962
時間も	-10.9963
終わったら	-10.9964
コンピュータ	-10.9964
▁最初	-10.9965
っていうことは	-10.9968
臭い	-10.9968
生活を	-10.9973
看護師	-10.9973
砂糖	-10.9973
知恵	-10.9974
女優	-10.9976
が出ている	-10.9978
▁my	-10.9978
そうですねはい	-10.9978
手間	-10.9983
お姉さん	-10.9985
軍事	-10.9986
ほどの	-10.9986
パーティ	-10.9992
短く	-10.9992
おけば	-10.9993
水素	-10.9995
が上がる	-10.9998
増えた	-11.0001
んでまぁ	-11.0004
向かい	-11.0004
スカイ	-11.0005
fi	-11.0007
みましょうか	-11.0008
人たちは	-11.0009
独	-11.001
ベビー	-11.0011
43	-11.0012
金が	-11.0012
ya	-11.0015
干	-11.0016
を助け	-11.0016
読め	-11.0017
にあって	-11.0018
つながって	-11.002
パーン	-11.0022
日記	-11.0023
というようなこと	-11.0023
謝	-11.0025
ですっ	-11.0028
ヒール	-11.0029
演	-11.0029
リラックス	-11.003
買おう	-11.003
どうでしょう	-11.0031
どちらも	-11.0032
▁誰が	-11.0032
からその	-11.0033
こいつら	-11.0033
揚げ	-11.0033
バッ	-11.0034
輸出	-11.0035
▁今日も	-11.0035
は全く	-11.0036
軍隊	-11.0039
消える	-11.0039
かしら	-11.0041
なろう	-11.0042
湿	-11.0043
回し	-11.0044
始まって	-11.0045
は約	-11.0046
着る	-11.0046
これはちょっと	-11.0049
今朝	-11.0051
写真を	-11.0051
奴ら	-11.0053
河	-11.0053
外の	-11.0057
かわかんない	-11.0058
望む	-11.006
からですね	-11.0063
台の	-11.0067
帳	-11.0067
ねほんとに	-11.007
2010	-11.007
燃え	-11.0071
の存在	-11.0074
自身の	-11.0074
ことになった	-11.0075
人生の	-11.0077
はあ	-11.008
誕生	-11.008
の量	-11.0081
市内	-11.0083
本目	-11.0084
消えて	-11.0086
ボランティア	-11.0086
酵素	-11.0086
見たこと	-11.0087
さに	-11.0087
知り合い	-11.0087
トラブル	-11.0087
良ければ	-11.0087
タオル	-11.0088
キム	-11.0088
どちらか	-11.0088
変わります	-11.0091
横浜	-11.0091
この曲	-11.0091
戻ってきた	-11.0093
▁左	-11.0094
やりましょう	-11.0096
巣	-11.0096
タスク	-11.0098
ですねっ	-11.0099
車が	-11.0099
突き	-11.01
解消	-11.0101
控え	-11.0105
ジャズ	-11.0106
流行	-11.0106
方面	-11.0107
かも知れません	-11.011
方です	-11.012
ませんか	-11.0121
まぁ今回	-11.0121
がかなり	-11.0123
気持ちで	-11.0123
科目	-11.0124
合わない	-11.0126
景	-11.0128
踊って	-11.0128
腸	-11.0129
は絶対	-11.0131
やっていこう	-11.0132
レベルの	-11.0137
問題ない	-11.0137
分ぐらい	-11.0139
をはじめ	-11.014
うわー	-11.0143
モーション	-11.0143
貿易	-11.0144
基盤	-11.0144
フィルター	-11.0145
この本	-11.0145
ho	-11.0146
共に	-11.0146
集まる	-11.0147
目指す	-11.0147
乗せ	-11.0148
アドレス	-11.0148
朝日	-11.0149
▁早速	-11.015
輝	-11.0151
今月	-11.0151
に入れる	-11.0151
がございます	-11.0155
止まる	-11.0156
良い子	-11.0157
直し	-11.0161
あかん	-11.0162
▁まあその	-11.0165
なきゃいけ	-11.0166
王子	-11.0166
通りに	-11.0167
快適	-11.0167
非常	-11.017
始まりました	-11.017
親父	-11.0172
漁	-11.0172
ライド	-11.0178
mi	-11.0178
自分たち	-11.0179
足元	-11.018
家具	-11.0182
さぁさぁ	-11.0182
▁やばい	-11.0184
たくなる	-11.0186
プチ	-11.0186
▁mo	-11.0187
咲く	-11.0188
含めて	-11.0188
生放送	-11.0188
なと思う	-11.0189
らし	-11.0189
教える	-11.0191
話します	-11.0193
ちゃー	-11.0194
つで	-11.0194
振動	-11.0195
テー	-11.0195
そういう感じ	-11.0196
備え	-11.0196
ようなこと	-11.0197
私自身	-11.0198
▁おっ	-11.02
の男	-11.02
鶴	-11.0201
▁follow	-11.0201
おもちゃ	-11.0202
私にとって	-11.0202
再開	-11.0202
ヒョン	-11.0203
固	-11.0203
フラン	-11.0203
入院	-11.0204
▁かなり	-11.0204
愛情	-11.0204
コーラ	-11.0206
ノリ	-11.0206
猛	-11.0208
ラバー	-11.0212
役に	-11.0212
▁ee	-11.0213
って言われ	-11.0213
と違う	-11.0213
人権	-11.0214
あるんだ	-11.0214
年以上	-11.0214
そういうのを	-11.0215
を作成する	-11.0215
るって事	-11.0217
スカート	-11.0218
版の	-11.0221
その頃	-11.0223
いると思います	-11.0223
は確かに	-11.0224
支部	-11.0224
決める	-11.0225
そうそうそう	-11.0226
▁windows	-11.0228
栄	-11.023
アンプ	-11.023
オーラ	-11.0231
ござい	-11.0232
▁まあでも	-11.0233
dr	-11.0234
ていると	-11.0234
何十	-11.0235
ことがわかります	-11.0239
しないといけない	-11.024
読んだ	-11.0241
様に	-11.0242
強調	-11.0242
今夜	-11.0244
合わせる	-11.0245
宇	-11.0245
なというふうに	-11.0245
から来た	-11.0246
▁ブーバ	-11.0247
ええっ	-11.0247
年ぐらい	-11.0248
言っちゃ	-11.0252
00	-11.0255
仕事の	-11.0256
誌	-11.0258
ge	-11.0259
レストラン	-11.026
のゲーム	-11.0261
薄く	-11.0263
ピア	-11.0264
赤字	-11.0265
後輩	-11.0266
アパート	-11.0266
も全部	-11.0267
▁そもそも	-11.0269
グリップ	-11.0273
来なかった	-11.0275
観測	-11.0276
叩き	-11.0276
▁足	-11.0277
ねやっぱ	-11.0277
ウス	-11.0277
布団	-11.0277
よろしくお願いしまーす	-11.0278
ドローン	-11.0278
で何か	-11.0278
やらせて	-11.028
がなかった	-11.0285
ますけども	-11.0287
交え	-11.0289
▁皆さんこんにちは	-11.029
覆	-11.0291
んね	-11.0292
ような感じで	-11.0292
左に	-11.0293
vi	-11.0293
あのちょっと	-11.0294
あれだ	-11.0296
確	-11.0296
まんま	-11.03
▁シャツ	-11.0301
インク	-11.0304
使います	-11.0305
じゃねー	-11.0311
思うんですけど	-11.0312
どこだ	-11.0314
左側	-11.0314
られています	-11.0314
ここですね	-11.0314
のほうがいい	-11.0315
▁私はあなたが	-11.0315
プライ	-11.0316
井戸	-11.0317
パウダー	-11.0317
召喚	-11.0317
転換	-11.0317
強制	-11.0317
演技	-11.0318
の姿	-11.0319
関節	-11.0319
が見える	-11.0319
といって	-11.032
もあるんですけど	-11.032
うまくいく	-11.032
獲得	-11.0321
政党	-11.0322
自衛隊	-11.0323
シングル	-11.0324
だからあの	-11.0325
のことです	-11.0327
搭載	-11.0328
倒	-11.0328
らしいです	-11.0329
年末	-11.0329
番目に	-11.0329
▁持っていた	-11.0329
そう言って	-11.0329
がなく	-11.0332
機種	-11.0333
にすると	-11.0333
レコード	-11.0333
od	-11.0333
命を	-11.0334
話をして	-11.0335
だったけど	-11.0335
シンプル	-11.0336
やだ	-11.0338
点で	-11.0338
トレード	-11.0338
けて	-11.034
したときに	-11.0341
適当に	-11.0341
ピュア	-11.0342
いるという	-11.0342
威	-11.0345
いいこと	-11.0346
のカード	-11.0346
てるから	-11.0346
真面目	-11.0347
結合	-11.0348
▁os	-11.0349
人生を	-11.035
一人の	-11.0353
フー	-11.0355
置	-11.0355
集めて	-11.0356
倒し	-11.0356
折り	-11.036
やっていきたいとおもいます	-11.0362
開ける	-11.0364
el	-11.0366
んじゃん	-11.0366
協	-11.0367
ということに	-11.0367
振	-11.0367
一家	-11.0367
道が	-11.0368
うううう	-11.037
譲	-11.0372
稼働	-11.0375
テクノロジー	-11.0375
いじめ	-11.0375
奴隷	-11.0375
違反	-11.0376
付属	-11.0377
ポンプ	-11.0378
間違った	-11.0379
方へ	-11.0379
ダイヤ	-11.038
不満	-11.038
メタル	-11.0382
うどん	-11.0383
であっても	-11.0383
コンビニ	-11.0383
になれ	-11.0383
青年	-11.0384
冷たい	-11.0387
一番最初に	-11.0389
吸い	-11.0389
聞か	-11.039
ではないので	-11.0391
皆さんは	-11.0392
場に	-11.0396
▁僕が	-11.0396
けどこれ	-11.0396
を求めて	-11.0397
されております	-11.0398
相性	-11.0399
ねこういう	-11.0399
に必要な	-11.04
グラフィック	-11.0401
でもやっぱり	-11.0402
使いやすい	-11.0404
認め	-11.0405
行われる	-11.0407
▁中国	-11.0411
私はこの	-11.0411
いったら	-11.0412
▁この後	-11.0413
大事だ	-11.0414
下から	-11.0416
益	-11.0417
がとても	-11.0418
残る	-11.0418
微妙	-11.0419
じゃないん	-11.0421
完	-11.0421
片方	-11.0422
タル	-11.0423
じゃないですけど	-11.0423
映	-11.0424
前方	-11.0424
感じます	-11.0425
がう	-11.0427
補助	-11.0428
だけを	-11.0428
ブラン	-11.0429
ドロー	-11.043
が増えて	-11.0433
拒否	-11.0434
髪の毛	-11.0435
もらいました	-11.0435
▁oh	-11.0437
食料	-11.0438
頑張り	-11.0438
ネットで	-11.0443
ないよう	-11.0443
もうほんと	-11.0444
権力	-11.0444
があるのか	-11.0444
斜め	-11.0446
方法です	-11.0447
飽き	-11.0448
丸い	-11.0448
威力	-11.0449
しま	-11.0453
ぷっ	-11.0459
ざー	-11.0463
倒して	-11.0467
っちゃって	-11.047
お越し	-11.047
しますので	-11.0471
フリ	-11.0474
エヴァ	-11.0477
めっ	-11.0479
隣の	-11.0481
▁けども	-11.0483
初の	-11.0483
ずっ	-11.0483
本部	-11.0489
入っちゃった	-11.0489
黄色い	-11.0489
やなぁ	-11.0491
習慣	-11.0492
評	-11.0492
だったのか	-11.0493
を持ってる	-11.0493
象徴	-11.0493
インパクト	-11.0493
駒	-11.0493
言及	-11.0494
が大きく	-11.0494
▁いうこと	-11.0495
ねええええ	-11.0496
豊かな	-11.0497
するとか	-11.0499
ゲームの	-11.0499
久しぶり	-11.0499
もねー	-11.0499
語る	-11.05
よくわかんない	-11.05
ももちろん	-11.0501
じゃないんですよ	-11.0504
視点	-11.0505
用い	-11.0507
▁昔	-11.0508
理由で	-11.0508
面白	-11.0511
そこにある	-11.0515
ジェン	-11.0517
父親	-11.0517
ちょっとずつ	-11.0521
ということになる	-11.0521
州の	-11.0522
くなって	-11.0524
一見	-11.0525
を覚えて	-11.0525
のであの	-11.0525
人だ	-11.0525
キリスト教	-11.0529
をすべて	-11.053
せいか	-11.0533
わし	-11.0533
頂いた	-11.0533
自然に	-11.0533
恋人	-11.0535
どれも	-11.0535
▁マ	-11.0539
すみ	-11.0542
積み	-11.0544
いいんじゃないか	-11.0545
高齢	-11.0547
典	-11.0549
かなんか	-11.055
の一番	-11.0551
熟	-11.0551
意図	-11.0552
していただきたい	-11.0552
じゃあこれ	-11.0553
X	-11.0553
皮膚	-11.0553
尊敬	-11.0553
名前を	-11.0554
されてい	-11.0554
かあさん	-11.0555
芸人	-11.0558
人間は	-11.0559
していくと	-11.0561
私はあなたを	-11.0561
研究者	-11.0567
バット	-11.0567
が大好き	-11.0568
複雑な	-11.057
活性化	-11.0571
47	-11.0571
らせて	-11.0572
グランド	-11.0573
数を	-11.0573
伸びる	-11.0574
用語	-11.0575
痩せ	-11.0575
tr	-11.0576
したが	-11.0581
クレイ	-11.0581
が変わって	-11.0582
戻し	-11.0585
ものがある	-11.0585
待て	-11.0586
ここからは	-11.0589
ないだろう	-11.0589
貼り	-11.059
お前が	-11.0591
▁cm	-11.0592
ときには	-11.0593
▁hi	-11.0594
ちょっとねぇ	-11.0598
ヤバい	-11.0599
▁ran	-11.0601
ごく	-11.0602
としている	-11.0604
出ている	-11.0604
回も	-11.0605
トル	-11.0607
口が	-11.0607
いかん	-11.0608
入ったら	-11.061
袖	-11.0613
▁木	-11.0613
返済	-11.0613
カレンダー	-11.0614
ってい	-11.0615
いただいている	-11.0616
そういう意味では	-11.0617
いただけると	-11.0618
とかあの	-11.0619
中止	-11.062
る人	-11.0622
添え	-11.0622
なってしまう	-11.0623
じゃな	-11.0626
何回か	-11.063
顔を	-11.0631
入りました	-11.0633
動画の	-11.0633
っていうところで	-11.0634
をお願いします	-11.0635
サード	-11.0636
部屋に	-11.0637
良いこと	-11.0637
男の	-11.0639
染め	-11.0639
▁15	-11.0641
カツ	-11.0642
ユニ	-11.0643
はすごく	-11.0646
pa	-11.0648
越し	-11.0648
常識	-11.0648
37	-11.0648
会社が	-11.065
沿って	-11.0651
▁本日は	-11.0651
送る	-11.0656
車を	-11.0656
im	-11.0656
落として	-11.0657
スタンド	-11.0658
詰まって	-11.0659
クト	-11.0661
と言われている	-11.0664
se	-11.0665
メガ	-11.0667
令	-11.0669
しますよね	-11.067
いる人	-11.0671
呼ぶ	-11.0671
エンジニア	-11.0672
委	-11.0672
警戒	-11.0673
ひたすら	-11.0673
厳しく	-11.0674
ボトル	-11.0674
ペーパー	-11.0674
発射	-11.0674
この頃	-11.0675
フラット	-11.0675
▁sns	-11.0675
みれば	-11.0675
シンプルな	-11.0675
切れる	-11.0675
リクエスト	-11.0676
fe	-11.0676
連合	-11.0676
を示す	-11.0677
▁三	-11.0678
ますはい	-11.0678
甘	-11.068
金利	-11.0681
あると思う	-11.0682
主は	-11.0685
解く	-11.0685
まあそういった	-11.0687
しておく	-11.0687
殺人	-11.0687
選手は	-11.0689
触	-11.069
まあね	-11.0692
思われ	-11.0694
はそれ	-11.0697
線の	-11.0699
巡	-11.0702
どうもありがとうございました	-11.0703
個目	-11.0704
最中	-11.0707
ロイ	-11.0708
に沿って	-11.0708
ね皆さん	-11.0708
やりたいこと	-11.0709
があるんだ	-11.071
なと思った	-11.071
▁美味しい	-11.0715
雨が	-11.0717
▁当時	-11.0718
賀	-11.0719
は何も	-11.0721
を待つ	-11.0722
ds	-11.0722
ーっと	-11.0725
補	-11.0725
決まり	-11.0725
後も	-11.0728
私たちも	-11.0728
何人か	-11.0728
と言うと	-11.0729
んですけどあの	-11.073
この辺り	-11.073
作ろう	-11.0731
んじゃないかと	-11.0733
▁nhk	-11.0734
テクニック	-11.0734
トレンド	-11.0734
自民党	-11.0734
プラスチック	-11.0734
黙	-11.0735
拍手	-11.0735
現場で	-11.0735
血管	-11.0736
頼む	-11.0736
フィルム	-11.0737
▁誰も	-11.0737
ハンター	-11.0738
本を	-11.0738
ましたけれども	-11.0739
ターボ	-11.0739
いっぱいある	-11.074
浮き	-11.074
こともあります	-11.0741
動かす	-11.0741
吉田	-11.0741
絞り	-11.0743
ピッチ	-11.0745
プッシュ	-11.0745
大分	-11.0749
逃げて	-11.0749
を作ります	-11.075
一番上	-11.0751
ツー	-11.0751
を着て	-11.0752
天使	-11.0753
に行きましょう	-11.0756
きています	-11.0756
メイド	-11.0759
のデータ	-11.0762
過ごす	-11.0767
測	-11.0767
スパイ	-11.0768
かもしれないんですけど	-11.0768
▁am	-11.077
他人	-11.0771
はまた	-11.0772
タイマー	-11.0773
引っ張って	-11.0776
この部分	-11.0777
パッと	-11.0779
順番に	-11.078
取り組んで	-11.0781
貫	-11.0784
方とか	-11.079
分けて	-11.0792
持ってきて	-11.0792
'	-11.0795
資源	-11.0795
ダイエット	-11.0795
おまけ	-11.0797
笑う	-11.0797
経って	-11.0799
を引いて	-11.0799
栄光	-11.0799
育成	-11.0801
もよく	-11.0802
▁カード	-11.0802
ヒュー	-11.0803
▁アイ	-11.0803
だけではなくて	-11.0803
▁違う	-11.0803
気になった	-11.0804
ねあれ	-11.0804
スピ	-11.0804
点が	-11.0805
んじゃね	-11.0806
時間で	-11.0814
ネック	-11.0816
もうこの	-11.0817
去って	-11.0818
der	-11.082
▁俺も	-11.0821
こちらを	-11.0821
2016	-11.0822
▁嘘	-11.0823
人には	-11.0825
色々な	-11.0825
勝て	-11.0826
te	-11.0827
通る	-11.0827
ラベル	-11.083
ないもの	-11.083
▁ad	-11.0831
いませんでした	-11.0831
犠牲	-11.0832
の桜	-11.0833
の人は	-11.0836
意識して	-11.0837
を取った	-11.0837
させない	-11.0839
家から	-11.0841
芝居	-11.0841
感じている	-11.0844
▁11	-11.0847
ライス	-11.0848
を探し	-11.085
を押し	-11.085
直後	-11.0851
よなぁ	-11.0851
ジョイ	-11.0852
職人	-11.0854
ねじゃあ	-11.0854
ためです	-11.0856
に比べて	-11.0856
半年	-11.0856
なう	-11.0856
ばいばーい	-11.0857
おいてください	-11.0857
▁以前	-11.0858
風邪	-11.0858
食材	-11.0858
ドーム	-11.0859
純正	-11.0859
政治家	-11.0861
ユーロ	-11.0861
▁なお	-11.0862
ポイントを	-11.0862
店で	-11.0863
修行	-11.0865
42	-11.0865
可能性が	-11.0866
そっと	-11.0871
つです	-11.0872
明日は	-11.0873
のかなと	-11.0873
気持ちは	-11.0874
であったりとか	-11.0874
あなたのために	-11.0874
てしまって	-11.0875
が来	-11.0875
ということでございます	-11.0876
またね	-11.0878
▁彼女が	-11.0878
裁判所	-11.0879
▁us	-11.0879
んですから	-11.0882
する必要	-11.0883
ニャー	-11.0883
サークル	-11.0884
正義	-11.0886
対決	-11.0886
▁オ	-11.0889
弱点	-11.0889
クリーン	-11.0889
キター	-11.0891
持ってきた	-11.0892
塗る	-11.0892
セント	-11.0893
線が	-11.0896
机	-11.0898
捕	-11.0899
何かというと	-11.0899
の街	-11.0899
スクリーン	-11.0899
飲んだ	-11.09
アホ	-11.0903
名前が	-11.0904
バリ	-11.0904
▁au	-11.0904
やってみましょう	-11.0904
という方	-11.0905
操	-11.0906
茶色	-11.0907
レーサー	-11.0907
何だ	-11.0908
なければいけない	-11.091
が可能	-11.0911
全身	-11.0912
夢を	-11.0915
いかが	-11.0915
喉	-11.0918
応答	-11.0918
恐竜	-11.0918
決算	-11.0918
引退	-11.0918
新潟	-11.0918
例は	-11.0918
つあります	-11.0919
保管	-11.0919
が低い	-11.0921
ぐらいまで	-11.0921
部屋の	-11.0922
言いながら	-11.0922
ギャ	-11.0922
マッハ	-11.0923
大丈夫ですか	-11.0923
親子	-11.0923
そういうのは	-11.0924
がかかる	-11.0925
の開発	-11.0925
いい子	-11.0925
世話	-11.0925
テレ	-11.0926
あなたがそれを	-11.0927
を進めて	-11.0927
並	-11.093
たっぷり	-11.0931
売り上げ	-11.0931
の練習	-11.0931
してるんで	-11.0931
ベア	-11.0933
▁かっこいい	-11.0934
けどねぇ	-11.0935
未だに	-11.0936
されており	-11.0936
180	-11.0937
ですねえっ	-11.0937
上げます	-11.0943
を切り	-11.0945
少	-11.0945
といっしょ	-11.0946
つも	-11.0948
辛く	-11.0949
をもって	-11.0953
正常	-11.0954
レッ	-11.0955
▁南	-11.0955
これだ	-11.0956
置い	-11.0958
勉強する	-11.096
そっから	-11.096
すり	-11.0961
当時は	-11.0962
コロ	-11.0962
光の	-11.0963
上野	-11.0964
ボイス	-11.0965
学校に	-11.0966
ろうと	-11.0967
始	-11.0969
1500	-11.097
わけだから	-11.097
▁思って	-11.097
炭	-11.0971
age	-11.0972
の方法	-11.0972
ってすごい	-11.0972
ね色んな	-11.0975
ee	-11.0975
なっちゃった	-11.0975
を目指す	-11.0977
慣れ	-11.0978
大変だ	-11.098
顎	-11.098
餅	-11.098
コマンド	-11.098
当選	-11.0981
じっくり	-11.0981
昔は	-11.0982
アーチ	-11.0983
と一緒	-11.0985
かわ	-11.0985
置く	-11.0986
ピックアップ	-11.0986
しゃべり	-11.0989
ねそうですね	-11.099
とかそういうの	-11.099
買える	-11.099
たた	-11.099
とかでも	-11.0991
セーブ	-11.0991
であるか	-11.0991
本物	-11.0992
がありますが	-11.0993
実力	-11.0993
▁とにかく	-11.0994
こら	-11.0995
心理	-11.0997
▁でこれ	-11.0998
んでちょっと	-11.0998
が出てきます	-11.1
王国	-11.1001
一本	-11.1001
気味	-11.1003
頭で	-11.1005
どうでもいい	-11.1006
に参加	-11.1008
ミング	-11.1008
▁そうだ	-11.1009
んだっけ	-11.101
ということでね	-11.1011
困った	-11.1011
流し	-11.1014
年は	-11.1016
泣いて	-11.1016
あると思います	-11.1018
の生活	-11.1019
つながる	-11.1019
お世話	-11.1021
その後に	-11.1023
するんですよ	-11.1025
そうなんですね	-11.1028
しているのは	-11.1029
とかそういった	-11.103
しましたね	-11.103
陥	-11.1031
はいありがとうございます	-11.1031
▁ええと	-11.1032
変換	-11.1037
デス	-11.1038
テント	-11.1039
見つけて	-11.1042
スマートフォン	-11.1043
しまー	-11.1045
一覧	-11.1046
条約	-11.1048
のかなと思います	-11.105
復帰	-11.105
萌え	-11.105
オリ	-11.105
の授業	-11.1053
▁最初は	-11.1053
▁うちの	-11.1055
お付き合い	-11.1055
その時の	-11.1055
流れる	-11.106
ラフ	-11.1062
この中に	-11.107
▁夢	-11.1071
こういう感じで	-11.1072
モル	-11.1074
真ん中に	-11.1078
ちゃおう	-11.1079
であるということ	-11.108
レンジ	-11.108
自分自身を	-11.1083
あのね	-11.1084
ないっ	-11.1085
詰めて	-11.1085
その間	-11.109
重さ	-11.109
整	-11.1091
哲学	-11.1091
初め	-11.1093
止まって	-11.1093
久しぶりに	-11.1094
先生は	-11.1095
ビーチ	-11.11
認証	-11.11
住む	-11.1101
であることを	-11.1102
記述	-11.1106
ィ	-11.1108
もまた	-11.111
になるんですけど	-11.1111
ラボ	-11.1113
ご視聴	-11.1114
姉妹	-11.1114
そういう人	-11.1114
会津	-11.1115
届いて	-11.1116
いかがでしょうか	-11.1116
J	-11.1117
っていうのはまあ	-11.1117
ああああっ	-11.1117
閉め	-11.1118
多いです	-11.1119
祭り	-11.112
なぜかというと	-11.112
だわ	-11.1121
行ってきた	-11.1121
ッド	-11.1122
開放	-11.1122
心から	-11.1123
動画に	-11.1124
触れる	-11.1125
マック	-11.1126
からまあ	-11.1126
おめでとう	-11.1132
一個	-11.1133
誤	-11.1133
だなあ	-11.1136
告	-11.1137
発車	-11.1138
ティン	-11.1138
自分の中で	-11.1139
▁as	-11.114
じゃねーか	-11.114
じゃああー	-11.1144
なってくる	-11.1144
を止め	-11.1147
を考え	-11.1147
らの	-11.115
麻生	-11.1152
ということなんですね	-11.1152
その中に	-11.1153
が難しい	-11.1153
関係なく	-11.1154
となっている	-11.1155
庫	-11.1156
抗	-11.1157
▁しっかり	-11.1158
残っている	-11.1159
ましたねー	-11.1162
せーの	-11.1162
準	-11.1163
に使う	-11.1164
体は	-11.1164
つが	-11.1166
後から	-11.1168
U	-11.1169
マニュアル	-11.1169
包丁	-11.1169
配慮	-11.1169
キャッシュ	-11.1169
クイーン	-11.1169
感染症	-11.1169
応用	-11.117
ブラシ	-11.1171
面接	-11.1172
ましたーーー	-11.1173
歌い	-11.1174
ロゴ	-11.1174
るし	-11.1174
たらもう	-11.1175
マジック	-11.1176
文明	-11.1176
苦しみ	-11.1177
覚える	-11.1179
となると	-11.1181
出さない	-11.1181
じゃなきゃ	-11.1182
代わり	-11.1183
が良く	-11.1184
ip	-11.1185
知りません	-11.1188
ah	-11.1188
着て	-11.1188
たときに	-11.1191
大学生	-11.1192
見事	-11.1193
まもなく	-11.1197
意味が	-11.1197
してみて	-11.1197
なんだった	-11.1198
そこらへん	-11.1198
通過	-11.1199
▁いいえ	-11.12
をよく	-11.1203
役者	-11.1206
代の	-11.1206
▁ここは	-11.1206
クター	-11.1206
のイメージ	-11.121
子育て	-11.1211
以下の	-11.1211
リュー	-11.1212
ゲン	-11.1213
残ってる	-11.1214
お家	-11.1214
ネル	-11.1215
企業の	-11.1216
そのため	-11.1217
▁ほら	-11.1218
覚	-11.122
なのだ	-11.122
こんなん	-11.1222
争い	-11.1223
フォト	-11.1224
があるんで	-11.1224
なんていうか	-11.1225
禁	-11.1228
景気	-11.1229
を進め	-11.1229
ような形	-11.1232
違和感	-11.1232
フレンド	-11.1232
▁ipad	-11.1233
ざっくり	-11.1233
海賊	-11.1235
トピック	-11.1235
ご案内	-11.1239
付き合って	-11.124
お二人	-11.1241
▁ic	-11.1243
詩	-11.1243
いろんなことを	-11.1244
ぐら	-11.1247
ちゃったら	-11.1247
を狙って	-11.1251
星の	-11.1252
自身が	-11.1253
あのその	-11.1253
が上がって	-11.1255
ベー	-11.1257
気持ちを	-11.1257
見てない	-11.1257
かせ	-11.1257
幸せな	-11.126
回路	-11.1261
じゃないですね	-11.1262
自殺	-11.1265
そういうふうな	-11.1268
これか	-11.1268
使われて	-11.1268
かねえ	-11.1271
あの頃	-11.1271
イス	-11.1273
ますます	-11.1274
許	-11.1275
越え	-11.1276
マラ	-11.1279
敵が	-11.128
と比べて	-11.128
といっ	-11.1282
リスナー	-11.1283
へっ	-11.1284
つ目の	-11.1284
奏	-11.1284
アニ	-11.1289
くま	-11.1289
▁そのため	-11.1292
私はそれが	-11.1293
採	-11.1293
が始まる	-11.1294
脈	-11.1294
いけばいい	-11.1295
伴	-11.1295
うえ	-11.1296
掲載	-11.1296
サウンド	-11.1296
▁facebook	-11.1296
ぶっちゃけ	-11.1296
推測	-11.1296
マーケティング	-11.1296
内閣	-11.1297
セリフ	-11.1297
は全然	-11.13
亡くなった	-11.1301
恵み	-11.1302
大和	-11.1303
チキン	-11.1308
学園	-11.1309
レオ	-11.1309
かったら	-11.1311
を伝え	-11.1313
▁ne	-11.1313
▁もともと	-11.1314
がいます	-11.1315
めんどくさい	-11.1317
なんですけどまぁ	-11.1321
気温	-11.1324
痛く	-11.1327
書い	-11.1327
神が	-11.1328
競	-11.1328
汚い	-11.1331
あっあ	-11.1331
判	-11.1332
しようかな	-11.1332
良いと思います	-11.1337
仕事に	-11.1338
ましたよね	-11.134
重要です	-11.1341
パーカー	-11.1342
ないんですね	-11.1343
を一緒に	-11.1351
ハマ	-11.1351
遅	-11.1351
ゆっくりと	-11.1352
釜	-11.1352
姿を	-11.1352
中古	-11.1353
スキン	-11.1353
由	-11.1354
▁それでも	-11.1359
肺	-11.136
虎	-11.1361
潤	-11.1361
ゲノム	-11.1361
必須	-11.1361
確信	-11.1361
きれない	-11.1362
軒	-11.1363
入ってきて	-11.1364
を見ることができます	-11.1364
両方の	-11.1364
会社で	-11.1364
目覚め	-11.1364
等で	-11.1365
ですこの	-11.1366
戻す	-11.137
米軍	-11.1371
だったかな	-11.1377
周囲	-11.1378
下り	-11.1379
かなと思う	-11.1379
あのねぇ	-11.1381
中華	-11.1381
ネイ	-11.1384
価	-11.1386
将	-11.1391
rs	-11.1391
によっては	-11.1392
ウェア	-11.1393
生きてる	-11.1393
出場	-11.1394
重心	-11.1398
46	-11.1398
受け入れ	-11.1401
かちょっと	-11.1403
ナイト	-11.1403
していただければ	-11.1405
なんでしょうか	-11.1406
購入した	-11.1407
▁イ	-11.1408
ちゃんに	-11.1409
が全部	-11.1411
を利用して	-11.1412
行くよ	-11.1412
かいい	-11.1412
勝手	-11.1413
茂	-11.1414
帝	-11.1415
考えます	-11.1415
が起こる	-11.1417
寿	-11.142
コス	-11.1421
この人は	-11.1422
麗	-11.1422
鋼	-11.1425
聞いてる	-11.1425
託	-11.1425
苗	-11.1425
笹	-11.1426
▁dvd	-11.1426
録画	-11.1426
何個	-11.1429
やりとり	-11.1429
いるもの	-11.1431
不要	-11.1431
形が	-11.1431
になっているので	-11.1431
霊夢	-11.1432
あう	-11.1434
せいで	-11.1435
バッター	-11.1435
▁裏	-11.1437
今回はですね	-11.1437
あげた	-11.1438
回ぐらい	-11.1439
出てき	-11.1439
かなっていう	-11.1442
もらえない	-11.1443
▁動画	-11.1444
突っ	-11.1445
みたいな話	-11.1445
力の	-11.1445
私ども	-11.1448
するには	-11.1449
イル	-11.1449
▁はいはい	-11.145
社の	-11.145
新型	-11.1451
の最初の	-11.1451
彼女に	-11.1451
過去に	-11.1451
どうやら	-11.1452
のではなく	-11.1455
あっあっ	-11.1456
回して	-11.1457
▁un	-11.1457
▁でその	-11.1458
美人	-11.1458
ね本当に	-11.1459
東京の	-11.1461
差別	-11.1461
欄	-11.1461
ものである	-11.1462
らもう	-11.1463
85	-11.1465
が大事	-11.1466
を読む	-11.1468
じゃんっ	-11.1469
おおーー	-11.147
過ぎて	-11.1474
迷惑	-11.1474
衆	-11.1478
できると	-11.1478
解け	-11.148
下げて	-11.1481
いただけたら	-11.1481
ような形で	-11.1482
伸	-11.1487
方が多い	-11.1487
だけでは	-11.1489
空の	-11.1489
白く	-11.149
砂漠	-11.1491
睡眠	-11.1491
しまえば	-11.1491
関与	-11.1492
徒歩	-11.1492
を使っている	-11.1492
爆弾	-11.1493
まぁそこ	-11.1494
宮崎	-11.1494
ウィンドウ	-11.1494
を紹介	-11.1501
思ってます	-11.1501
を手に入れました	-11.1502
俺を	-11.1502
ですねぇー	-11.1505
検出	-11.1509
考えています	-11.1509
で何	-11.1511
ないでしょう	-11.1511
することも	-11.1511
行い	-11.1511
我々が	-11.1511
良いもの	-11.1512
ジュン	-11.1513
行くの	-11.1513
全員が	-11.1514
ってくれ	-11.1514
蹴	-11.1515
女神	-11.1516
国に	-11.1517
朝の	-11.1517
あるんですけども	-11.1518
の味	-11.1519
を全部	-11.1521
中盤	-11.1522
タイガー	-11.1522
を知らない	-11.1523
以上で	-11.1524
落とす	-11.1525
削除	-11.1529
はぁっ	-11.1531
▁頑張って	-11.1534
見てて	-11.1537
を考える	-11.1539
がつく	-11.154
の壁	-11.1542
もかなり	-11.1542
れちゃう	-11.1542
が増える	-11.1545
su	-11.1545
答えて	-11.1546
▁そこに	-11.1548
頂ければ	-11.1548
思わ	-11.155
123	-11.1551
間で	-11.1551
さい	-11.1555
ang	-11.1555
騒	-11.1555
と違って	-11.1556
鑑定	-11.1557
ジュース	-11.1557
ボーナス	-11.1557
大根	-11.1557
二つ目	-11.1558
補正	-11.1558
それ以外の	-11.1559
美術	-11.1559
メタ	-11.1562
って言っても	-11.1562
お姉ちゃん	-11.1562
ポンポン	-11.1563
でお	-11.1564
メッセージを	-11.1565
着物	-11.1566
答える	-11.1566
時とか	-11.1566
よくわからない	-11.1566
サンド	-11.1567
の鍵	-11.1569
しましょうか	-11.158
消化	-11.1583
こういうもの	-11.1585
ap	-11.1585
でこれを	-11.1588
の人に	-11.159
という名前	-11.1592
ペイ	-11.1593
お水	-11.1593
倒れ	-11.1593
ちょっとまあ	-11.1595
我ら	-11.1596
ですそれは	-11.1599
のポイント	-11.1599
が高く	-11.16
アロ	-11.16
しまっている	-11.1604
到達	-11.1605
を理解する	-11.1605
ないって	-11.1606
使えます	-11.1609
超え	-11.161
6000	-11.161
市で	-11.161
はならない	-11.1612
向かう	-11.1613
有利	-11.1613
豊富	-11.1615
怒られ	-11.1616
美味しいです	-11.1617
年には	-11.1617
あとで	-11.162
でもこれ	-11.1621
眉	-11.1622
鶏	-11.1622
粗	-11.1623
従業員	-11.1623
セクション	-11.1624
回す	-11.1626
ロンドン	-11.1626
の効果	-11.1628
自動的に	-11.1629
▁俺の	-11.163
告知	-11.1631
でこれは	-11.1632
光が	-11.1633
分かりやすい	-11.1634
レザー	-11.1635
政府が	-11.1635
花が	-11.1635
曲がって	-11.1636
レジャー	-11.1637
後悔	-11.1638
るんですけども	-11.1639
言いますと	-11.1645
▁たぶん	-11.1647
あると思うんですけど	-11.1648
如	-11.165
本日も	-11.165
でしか	-11.1652
彼も	-11.1653
クリー	-11.1654
あげたい	-11.1655
自分たちの	-11.1655
風の	-11.1656
主の	-11.1658
思いを	-11.1658
秒で	-11.1659
事が	-11.1659
直す	-11.166
聞いたら	-11.1662
点は	-11.1662
がなくて	-11.1663
と共に	-11.1664
ビックリ	-11.1665
行われた	-11.1665
付いた	-11.1665
私から	-11.1666
本気で	-11.1673
汚	-11.1673
大丈夫な	-11.1676
山に	-11.1678
地点	-11.1679
奇	-11.168
それによって	-11.1684
著者	-11.1686
くじ	-11.1686
細く	-11.1687
並べ	-11.1688
▁おい	-11.1688
接触	-11.1689
唇	-11.169
鯉	-11.169
狼	-11.169
プライベート	-11.169
を提供する	-11.169
漢字	-11.169
パター	-11.1691
並び	-11.1691
児童	-11.1691
並み	-11.1691
光景	-11.1691
鳴	-11.1691
削減	-11.1692
必ずしも	-11.1695
かさ	-11.1699
個人的な	-11.1702
願って	-11.1704
ましたか	-11.1704
すべての人	-11.1706
返事	-11.1706
に何	-11.1706
させていただきたいと思います	-11.1707
ep	-11.1707
だけじゃない	-11.1709
逆転	-11.1712
あの人	-11.1713
があっても	-11.1713
ような気がする	-11.1713
▁基本的に	-11.1714
一つは	-11.1715
シップ	-11.1717
▁夜	-11.1717
通った	-11.1718
アメ	-11.1718
ボロ	-11.1718
されたら	-11.1719
ビーム	-11.172
親指	-11.172
意外	-11.1724
作っている	-11.1724
食べます	-11.1725
はよく	-11.1728
▁ho	-11.1729
与えられた	-11.1729
しん	-11.1731
おいで	-11.1733
載って	-11.1734
太田	-11.1737
▁そういった	-11.1737
からあの	-11.1739
サイクル	-11.174
いるの	-11.174
あの今	-11.1741
子です	-11.1741
ケイ	-11.1741
めぐ	-11.1743
マニア	-11.1744
どんだけ	-11.1744
同盟	-11.1749
裸	-11.175
売上	-11.1751
ニッ	-11.1752
共感	-11.1753
久保	-11.1754
▁アー	-11.1755
逸	-11.1757
フレーズ	-11.1757
竿	-11.1757
:00	-11.1757
稼ぎ	-11.1757
経路	-11.1759
話を聞いて	-11.176
じゃっ	-11.1761
ゆー	-11.1763
やっちゃう	-11.1763
首都	-11.1764
49	-11.1764
三角	-11.1765
とかっていう	-11.1766
並べて	-11.1766
カップル	-11.1768
浮か	-11.1771
だそうです	-11.1771
▁結果	-11.1773
この時期	-11.1773
と思いません	-11.1773
.0	-11.1774
引いた	-11.1774
一年	-11.1778
いないので	-11.1778
することです	-11.1778
シャワー	-11.178
駆け	-11.1782
最新の	-11.1785
幹	-11.1789
▁映画	-11.1791
村の	-11.1792
変形	-11.1792
がどのように	-11.1793
したけど	-11.1793
いうのが	-11.1795
どうしたらいい	-11.1797
訪	-11.1798
ちょっとちょっと	-11.1801
って書いてある	-11.1801
ーい	-11.1802
るところ	-11.1803
りゃー	-11.1804
カナ	-11.1806
しないように	-11.1807
与	-11.1809
入学	-11.181
してもいい	-11.1811
ヶ	-11.1811
引用	-11.1816
子を	-11.1818
会は	-11.182
取っ	-11.182
▁ec	-11.1823
これがね	-11.1823
よねっ	-11.1823
ステータス	-11.1825
誘導	-11.1825
ソフトウェア	-11.1825
天才	-11.1825
存在する	-11.1826
領土	-11.1826
に乗る	-11.1826
ッキ	-11.1827
です私は	-11.1827
店長	-11.1827
増やし	-11.1828
電波	-11.1829
に入ってる	-11.1829
したがって	-11.1831
黄金	-11.1833
スケール	-11.1833
ラル	-11.1835
頂け	-11.1838
▁通常	-11.1838
でもこの	-11.1838
縮	-11.1838
倒す	-11.1839
よろ	-11.1839
はすごい	-11.1839
サッ	-11.1839
一定の	-11.184
翌日	-11.184
▁ただし	-11.1841
所得	-11.1843
があったので	-11.1843
帰ってくる	-11.1843
が続いて	-11.1844
覚えている	-11.1844
頃の	-11.1845
▁mi	-11.1846
愛する	-11.1848
つっ	-11.185
はあああ	-11.1851
67	-11.1851
誰に	-11.1852
シス	-11.1852
ちゃんっ	-11.1853
そうではない	-11.1856
そんなん	-11.1857
クリップ	-11.1858
お友達	-11.1858
を開けて	-11.186
日本人の	-11.1861
を実現	-11.1862
なーっていう	-11.1862
買ったら	-11.1862
に従って	-11.1863
を発見	-11.1868
しなさい	-11.187
になってしまった	-11.1874
面白く	-11.1876
ミク	-11.1877
海軍	-11.1877
植	-11.1878
ないということ	-11.188
のほか	-11.188
レモン	-11.1881
良さ	-11.1883
ポット	-11.1884
物の	-11.1884
停	-11.1885
婚	-11.1886
髪を	-11.1887
やったこと	-11.1887
ねここ	-11.1887
部に	-11.1887
比べて	-11.1889
丹	-11.1891
丼	-11.1892
希	-11.1892
貸	-11.1892
向か	-11.1892
師匠	-11.1893
▁year	-11.1893
が起こった	-11.1893
設け	-11.1893
意志	-11.1894
ままで	-11.1894
実態	-11.1894
シルバー	-11.1895
美しさ	-11.1896
mp	-11.1897
一周	-11.1898
状況を	-11.1899
もなんか	-11.1899
話で	-11.1902
両方とも	-11.1902
上が	-11.1905
どういう風に	-11.1906
惚れ	-11.1907
当てて	-11.1909
調べる	-11.1912
なってます	-11.1912
関係が	-11.1913
しているのか	-11.1919
▁こういった	-11.1919
ne	-11.1921
を確認	-11.1921
商品を	-11.1922
やってください	-11.1927
出口	-11.1927
していきたいと思います	-11.1927
ミート	-11.1929
ビデオを	-11.1929
知らん	-11.1929
英語で	-11.193
強み	-11.193
べっ	-11.1932
したか	-11.1932
だそう	-11.1933
ou	-11.1933
したところ	-11.1933
テレビで	-11.1933
酔	-11.1934
でしたけど	-11.1935
問題です	-11.1938
年前の	-11.1939
あゆ	-11.1939
したのか	-11.1939
があるの	-11.1941
留学	-11.1944
誤解	-11.1944
▁逆	-11.1945
の差	-11.1946
遺	-11.1948
た場合	-11.1949
隣	-11.1952
うまくいかない	-11.1953
忠	-11.1953
▁みなさんこんにちは	-11.1953
チリ	-11.1955
小川	-11.1958
暖	-11.196
ねああ	-11.1961
イスラエル	-11.1961
はいというわけで	-11.1961
▁ますが	-11.1962
欧州	-11.1962
バラバラ	-11.1962
執行	-11.1962
がわからない	-11.1968
78	-11.197
子たち	-11.1971
とかまぁ	-11.1971
ルアー	-11.1973
ir	-11.1974
内容は	-11.1978
に関しても	-11.1978
ここには	-11.1981
この状態で	-11.1982
ここでも	-11.1982
やっていた	-11.1985
そういったもの	-11.1989
▁要は	-11.1989
ねば	-11.199
するよ	-11.1991
リム	-11.1991
捨てる	-11.1992
スイス	-11.1992
チェリー	-11.1993
相手を	-11.1994
映画の	-11.1994
ハーイ	-11.1995
しているところ	-11.1996
どっかで	-11.1997
着く	-11.1999
対策を	-11.1999
トム	-11.1999
個人の	-11.2
済	-11.2002
伸ばして	-11.2002
わら	-11.2004
ナム	-11.2004
▁後ろ	-11.2005
貼り付け	-11.2005
ことができるので	-11.2007
入れました	-11.2008
履	-11.2009
タグ	-11.201
私はそれ	-11.201
以前の	-11.2012
ましたので	-11.2012
すって	-11.2012
からいい	-11.2013
育った	-11.2013
しめ	-11.2016
250	-11.2017
きれいな	-11.2017
好きな人	-11.2018
刑	-11.2024
一番の	-11.2027
馬場	-11.2027
いければ	-11.2028
与えて	-11.2028
と思いますけれども	-11.2029
レギュラー	-11.203
エントリー	-11.203
放題	-11.203
メンタル	-11.203
フルーツ	-11.2031
名誉	-11.2031
少々	-11.2031
こっちから	-11.2031
しませんでした	-11.2031
ペイント	-11.2031
シャッター	-11.2032
くださっ	-11.2033
輸入	-11.2035
シャル	-11.2036
それじゃ	-11.2038
くれれば	-11.2038
メー	-11.204
文字通り	-11.204
覚えてない	-11.2041
次回は	-11.2043
▁初めて	-11.2043
em	-11.2043
ちゃんねる	-11.2048
あれっ	-11.2048
そういう意味で	-11.2049
じゃありません	-11.2049
用意して	-11.2052
を止める	-11.2053
スタンプ	-11.2053
▁パパ	-11.2054
かもしれないです	-11.2055
▁確か	-11.2056
大谷	-11.2056
になっても	-11.2057
きょう	-11.2057
を獲得	-11.2058
からなぁ	-11.2058
手首	-11.2059
お得	-11.206
を感じて	-11.206
がわかる	-11.2061
昨日の	-11.2064
あぁそう	-11.2064
首を	-11.2067
ここだけ	-11.2067
単純	-11.2068
背負って	-11.2068
一番いい	-11.2068
の夢	-11.2071
なんかそういう	-11.2072
になっていて	-11.2073
ストア	-11.2073
ほんの	-11.2073
社会的	-11.2074
そのまあ	-11.2078
書かれて	-11.2081
祖	-11.2082
子供の頃	-11.2082
静か	-11.2084
エス	-11.2085
モリ	-11.2085
人くらい	-11.2086
松本	-11.2087
ごはん	-11.2089
はございません	-11.2089
実質	-11.2091
渡す	-11.2091
だよな	-11.2094
雇	-11.2095
尊	-11.2096
部位	-11.2096
会見	-11.2097
ly	-11.2097
を含めて	-11.2099
捜査	-11.2099
十字架	-11.2099
ドキュメント	-11.2099
過剰	-11.2099
ユーチューバー	-11.2099
オブジェクト	-11.2099
ギャップ	-11.21
ご意見	-11.2101
対抗	-11.2101
観客	-11.2101
カナダ	-11.2101
幸運	-11.2102
をしながら	-11.2103
を維持	-11.2103
どぅ	-11.2105
ザク	-11.2105
ei	-11.2105
▁雪	-11.2106
お待ちしております	-11.2107
君たち	-11.2108
バスター	-11.2109
していただく	-11.2112
女王	-11.2112
の中には	-11.2113
良くなる	-11.2114
大丈夫大丈夫	-11.2116
そういったこと	-11.2118
ボイ	-11.2119
自社	-11.2123
聞くと	-11.2124
来たら	-11.2124
このあたり	-11.2126
と言われた	-11.2128
引	-11.2128
にお	-11.2129
名が	-11.2131
が発生し	-11.2131
韓	-11.2132
けっこう	-11.2133
処	-11.2133
▁19	-11.2134
そうなの	-11.2135
区別	-11.2137
の上で	-11.214
強度	-11.2141
なったり	-11.2142
できるのか	-11.2144
ハル	-11.2146
ねそんな	-11.2147
世界一	-11.2148
▁他	-11.2149
ありえない	-11.215
ですねやっぱり	-11.215
の魅力	-11.2154
リッチ	-11.2155
にしたい	-11.2156
部分で	-11.2158
その中でも	-11.2159
銭	-11.216
戻ってきて	-11.216
なくなりました	-11.216
なっていく	-11.2162
起きた	-11.2162
単純な	-11.2168
国は	-11.2168
してません	-11.2168
裕	-11.2169
拉致	-11.2169
経緯	-11.2169
ふざけ	-11.2169
閉鎖	-11.217
キャッチャー	-11.217
待っ	-11.2172
過ごして	-11.2173
199	-11.2173
月曜日	-11.2174
のかどうか	-11.2175
▁ございます	-11.2175
▁その中で	-11.2176
拾って	-11.2176
起こり	-11.2177
59	-11.2177
アイコン	-11.2177
サンタ	-11.2177
にしよう	-11.2178
刊	-11.2179
復興	-11.218
しなきゃ	-11.2181
できますか	-11.2181
狭	-11.2181
洋服	-11.2182
▁だが	-11.2185
やてぃ	-11.2185
▁僕も	-11.2187
力で	-11.2188
▁その時に	-11.2195
状況が	-11.2198
脱出	-11.2199
仰	-11.2201
ぺー	-11.2201
書け	-11.2202
の一	-11.2202
彼らを	-11.2203
する人	-11.2205
を始める	-11.2206
誘	-11.2206
いかないと	-11.2206
の両方	-11.2207
▁id	-11.2207
打っ	-11.2208
倍の	-11.2208
関わって	-11.2208
いいんです	-11.2208
地域で	-11.2209
わかんないけど	-11.2209
▁本当は	-11.2209
セイ	-11.2209
地形	-11.221
行ってみよう	-11.2211
広がって	-11.2212
95	-11.2213
理由です	-11.2213
▁誰	-11.2213
▁he	-11.2213
思ってた	-11.2214
▁うわ	-11.2216
眠り	-11.2216
同期	-11.2216
ッパー	-11.2216
▁はいということで	-11.2218
覚えてる	-11.222
を押して	-11.222
の歌	-11.2222
サス	-11.2222
の心	-11.2223
のすべての	-11.2224
なって思って	-11.2224
選べ	-11.2226
を始めた	-11.2227
その分	-11.2227
言われている	-11.2228
潜	-11.2229
▁デ	-11.2232
のレベル	-11.2232
入り口	-11.2233
を防ぐ	-11.2233
積んで	-11.2233
のでそれ	-11.2234
胃	-11.2234
を設け	-11.2234
言っちゃう	-11.2236
真剣に	-11.2237
▁完全に	-11.2237
って思った	-11.2238
をうまく	-11.2239
難易度	-11.224
孤独	-11.224
花火	-11.224
倉庫	-11.224
応援して	-11.224
ドレス	-11.2241
おすすめです	-11.2243
祖父	-11.2243
儲け	-11.2244
ヤー	-11.2244
についてお話し	-11.2244
トレイ	-11.2245
を合わせて	-11.2245
るもの	-11.2245
打て	-11.2246
継	-11.2247
続けます	-11.2248
予備	-11.2248
中田	-11.2252
があるか	-11.2252
叶え	-11.2253
呼ばれ	-11.2255
リカ	-11.2256
歴	-11.2256
▁私に	-11.226
ジャガー	-11.2261
トリック	-11.2262
えて	-11.2262
身に	-11.2262
これですね	-11.2264
機体	-11.2264
量は	-11.227
ペル	-11.227
使われている	-11.2271
リアの	-11.2271
のはこの	-11.2272
市は	-11.2275
キュー	-11.2275
麻	-11.2277
ウー	-11.2278
そこには	-11.2278
▁これから	-11.2283
はいで	-11.2283
もう今	-11.2284
▁彼らの	-11.2285
ただいま	-11.2286
せっ	-11.2288
▁正直	-11.2289
の裏	-11.229
▁きっと	-11.229
そういったところ	-11.229
の際	-11.2292
してまー	-11.2292
は常に	-11.2293
因	-11.2294
中継	-11.2294
学部	-11.2294
来ません	-11.2295
いだ	-11.2296
道に	-11.2298
ピング	-11.2298
日か	-11.2298
少しだけ	-11.23
生じ	-11.2303
したん	-11.2304
やられた	-11.2305
しなければ	-11.2307
カブ	-11.2307
枯れ	-11.2307
加藤	-11.2308
通じ	-11.2308
柳	-11.2309
▁横	-11.2311
沖	-11.2311
ダイヤモンド	-11.2311
思想	-11.2311
ニューヨーク	-11.2311
キャプテン	-11.2311
ブラジル	-11.2311
冷凍	-11.2311
免許	-11.2311
ディスプレイ	-11.2312
国民の	-11.2313
済む	-11.2313
商売	-11.2313
ストック	-11.2314
たて	-11.2314
企業が	-11.2318
審	-11.2319
our	-11.2319
からだ	-11.232
とかなんか	-11.2321
完璧な	-11.2322
ユダヤ人	-11.2324
利用者	-11.2324
くれてありがとう	-11.2324
でよく	-11.2329
を守って	-11.2332
▁第二	-11.2335
なのが	-11.2335
▁名前	-11.2335
▁初	-11.2336
この場合	-11.2336
驚き	-11.2338
所の	-11.2338
ード	-11.2339
ント	-11.234
とかあとは	-11.234
おめ	-11.2342
振る	-11.2344
したよ	-11.2344
スは	-11.2344
グレード	-11.2348
▁bo	-11.235
の旅	-11.235
作ら	-11.2351
バク	-11.2351
▁pa	-11.2351
外側	-11.2351
回戦	-11.2351
氏が	-11.2352
テール	-11.2353
街の	-11.2357
みたいなことを	-11.2358
スマ	-11.2358
生き方	-11.2358
に対応	-11.236
一つ目	-11.2362
▁pou	-11.2363
いる方	-11.2363
をちゃんと	-11.2365
載せ	-11.2368
濃	-11.2368
ポーチ	-11.2368
弁当	-11.237
分かりました	-11.2375
してるんだ	-11.2375
月は	-11.2376
壁に	-11.2378
を始めて	-11.2379
そうでしょ	-11.2379
湾	-11.238
▁ていた	-11.2381
周年	-11.2381
申告	-11.2382
で言って	-11.2382
エフェクト	-11.2382
フィギュア	-11.2382
拡散	-11.2382
要請	-11.2382
引っ越し	-11.2382
ストレッチ	-11.2383
よねこれ	-11.2385
セックス	-11.2386
せめて	-11.2387
当てる	-11.2387
ありましたね	-11.2391
はいつも	-11.2391
日本では	-11.2392
座り	-11.2393
見解	-11.2393
分に	-11.2394
おはよう	-11.2395
▁スーパー	-11.2396
たんですけれども	-11.2401
なくなります	-11.2405
ことを願っています	-11.2406
om	-11.2407
もしっかり	-11.2412
るだけ	-11.2413
ポンド	-11.2413
振り返って	-11.2413
私は今	-11.2417
っぺ	-11.2418
▁そして今	-11.2419
今この	-11.2421
を待って	-11.2421
よっしゃ	-11.2423
なかったから	-11.2424
その人の	-11.2426
でしたか	-11.2426
しようとする	-11.2429
ありがと	-11.2429
んですけどこの	-11.243
全体に	-11.243
えらい	-11.2431
革	-11.2432
荷	-11.2432
ライナー	-11.2436
すごいなぁ	-11.2436
住み	-11.2436
なるか	-11.2436
がいて	-11.2438
ずれ	-11.2439
捕まえ	-11.244
を切る	-11.244
場所を	-11.2441
いるんですけれども	-11.2441
たのに	-11.2442
たちも	-11.2444
あるよね	-11.2445
pi	-11.2446
頃は	-11.2446
の手	-11.2448
偏	-11.2449
立派な	-11.245
要件	-11.245
に立って	-11.2451
する場合	-11.2451
ナース	-11.2452
去った	-11.2452
▁恋	-11.2452
目指し	-11.2453
パチンコ	-11.2454
継承	-11.2454
覚悟	-11.2454
受講	-11.2454
持続	-11.2454
礼拝	-11.2454
勘違い	-11.2455
刻	-11.2455
課税	-11.2456
加入	-11.2456
美しく	-11.2457
50%	-11.2458
になってて	-11.2461
▁阿蘇	-11.2461
▁lo	-11.2462
くらいで	-11.2464
されません	-11.2465
顔の	-11.2466
ミルク	-11.2466
深夜	-11.2467
の技術	-11.2468
美味しく	-11.2469
出そう	-11.247
の新	-11.247
いろ	-11.2471
とんでもない	-11.2472
気づき	-11.2474
本文	-11.2475
辞	-11.2475
▁パン	-11.2477
コンボ	-11.2477
▁sh	-11.2477
原理	-11.2478
▁別の	-11.248
飾り	-11.248
スリー	-11.2482
ってこう	-11.2482
疲れた	-11.2483
になるでしょう	-11.2483
それ以上	-11.2484
64	-11.2484
例え	-11.2485
参加して	-11.2485
▁最後の	-11.2487
▁別に	-11.2489
多くの人が	-11.2493
の立場	-11.2495
画面に	-11.2496
▁te	-11.2497
今ちょっと	-11.2498
全体で	-11.2498
探	-11.25
呼ばれて	-11.25
のようです	-11.25
自然と	-11.2501
話し合い	-11.2502
延	-11.2503
起きる	-11.2506
見えません	-11.2506
行くか	-11.2507
方もいらっしゃる	-11.251
遅れて	-11.251
もう一つは	-11.2511
みろ	-11.2512
という感じですね	-11.2513
▁この辺	-11.2513
と思ってます	-11.2513
を使用し	-11.2514
留め	-11.2518
もたくさん	-11.2522
則	-11.2523
を増やす	-11.2523
キャブ	-11.2523
んでしょうけど	-11.2524
と思っていた	-11.2524
その結果	-11.2525
殻	-11.2526
虹	-11.2527
リモート	-11.2527
ハァハァ	-11.2527
▁with	-11.2527
わざと	-11.2529
由来	-11.2529
西洋	-11.2531
定期的に	-11.2532
でこれが	-11.2532
に移	-11.2533
ラク	-11.2537
ここにも	-11.2537
ine	-11.2537
▁アメリカ	-11.2538
南部	-11.2539
新宿	-11.254
んちゃん	-11.254
投手	-11.2541
んぱ	-11.2541
直前	-11.2542
は同じ	-11.2542
▁本当	-11.2543
ちょっと難しい	-11.2545
してあげる	-11.2545
てるよ	-11.2545
すく	-11.2546
っはい	-11.2548
したのが	-11.2548
▁ch	-11.2549
そしてあなたは	-11.2551
やるか	-11.2551
てもいい	-11.2552
新人	-11.2553
ご利用	-11.2553
がないから	-11.2554
方と	-11.2554
降って	-11.2555
せー	-11.2556
でやってる	-11.2559
消す	-11.2559
響	-11.256
もらいます	-11.2561
年まで	-11.2561
表示される	-11.2565
実はこの	-11.2567
咲き	-11.2567
されているので	-11.2567
発音	-11.2567
を見ました	-11.2568
わけじゃないですか	-11.2568
音で	-11.2569
ですねあと	-11.257
わかん	-11.257
原作	-11.257
どのくらい	-11.257
になってますね	-11.2573
たような	-11.2574
奇妙な	-11.2575
の中心	-11.2575
堅	-11.2576
どうだった	-11.2578
たんだよ	-11.2578
行か	-11.2579
を守り	-11.2579
に入ります	-11.258
なんでこんな	-11.2583
▁なんと	-11.2583
したとき	-11.2584
グルー	-11.2585
群れ	-11.2586
ゆえに	-11.2586
だけどね	-11.2587
どうなんだろう	-11.2587
去	-11.2588
bo	-11.2588
ライオン	-11.2589
それか	-11.2591
クション	-11.2591
やっぱりこの	-11.2591
山さん	-11.2594
説明して	-11.2594
の多い	-11.2595
ねみんな	-11.2596
そそ	-11.2597
踏	-11.2597
大切に	-11.2598
いくん	-11.2598
作られて	-11.2598
脂	-11.2598
曽	-11.2599
たまま	-11.2599
杭	-11.26
レシピ	-11.26
コンパクト	-11.26
イケメン	-11.26
世間	-11.26
決意	-11.26
設立	-11.26
おけ	-11.2602
やすくなる	-11.2605
を切って	-11.2605
外観	-11.2606
うる	-11.2607
倒した	-11.2607
なというふうに思います	-11.2607
公表	-11.2607
楽天	-11.2609
もらえます	-11.261
行っても	-11.2611
してですね	-11.2612
だーっ	-11.2613
▁彼女の	-11.2614
ような状況	-11.2614
▁要するに	-11.2615
安打	-11.2616
かからない	-11.2617
子も	-11.2619
お兄ちゃん	-11.2619
しておいて	-11.2619
フランスの	-11.2621
申し訳ありません	-11.2621
それは本当に	-11.2622
うつ	-11.2622
▁ルー	-11.2624
市が	-11.2624
去る	-11.2624
イケ	-11.2628
はいこちら	-11.2632
この世界	-11.2634
ケル	-11.2634
▁ar	-11.2636
もうなんか	-11.2636
レベルで	-11.2637
こんだけ	-11.264
もらったら	-11.2641
こうなる	-11.2646
しなければなりません	-11.2647
うんん	-11.2647
夜中	-11.2649
全体が	-11.265
津波	-11.265
続けた	-11.2651
どれが	-11.2651
無効	-11.266
水平	-11.2662
スティ	-11.2662
者数	-11.2664
固め	-11.2665
タバコ	-11.2666
した時	-11.2667
浸	-11.2667
政府の	-11.2668
ないところ	-11.267
地帯	-11.2671
綱	-11.2672
屈	-11.2672
澤	-11.2673
#	-11.2673
ツボ	-11.2673
ドキドキ	-11.2673
串	-11.2673
クライアント	-11.2673
該当	-11.2673
挿入	-11.2673
アタック	-11.2675
ふり	-11.2675
サマー	-11.2676
牛乳	-11.2676
リボン	-11.2676
フォーク	-11.2677
阪神	-11.2677
いっぱいいる	-11.2677
いることを	-11.2678
名称	-11.2678
とる	-11.2679
式の	-11.268
夜に	-11.2681
福井	-11.2681
いー	-11.2682
点数	-11.2683
いち	-11.2684
意見を	-11.2686
ない人	-11.2687
お土産	-11.2687
-2	-11.2688
ぜひぜひ	-11.2688
が始まった	-11.2689
美味しかった	-11.269
制定	-11.2691
デコ	-11.2693
飼	-11.2694
かなん	-11.2694
てくれて	-11.2696
皆様の	-11.2699
のデザイン	-11.2703
呼	-11.2703
行ってきました	-11.2706
行われている	-11.2707
がないので	-11.2708
向けて	-11.2708
-3	-11.2708
予	-11.2709
らせる	-11.271
ねだから	-11.2711
する前に	-11.2711
って感じで	-11.2712
種の	-11.2712
状態です	-11.2712
しますけど	-11.2713
▁ta	-11.2714
人工	-11.2714
抑えて	-11.2715
ミラ	-11.2715
だけではなく	-11.2717
においても	-11.272
▁アル	-11.2721
この男	-11.2721
伝わる	-11.2723
静かに	-11.2723
ことですね	-11.2724
してたら	-11.2725
頑張れ	-11.2725
集合	-11.2725
こんなもん	-11.2729
ソル	-11.2732
現れる	-11.2734
連中	-11.2736
申し訳ありませんが	-11.2738
あるかもしれない	-11.2739
も一緒に	-11.2739
になりまして	-11.2745
されていて	-11.2746
翔	-11.2747
故障	-11.2747
斎藤	-11.2747
同僚	-11.2747
と言わ	-11.2747
艦隊	-11.2748
衛星	-11.2749
キッズ	-11.275
サラダ	-11.275
フラッシュ	-11.275
が大	-11.275
掲げ	-11.2752
私のために	-11.2752
だと思った	-11.2752
程度の	-11.2752
甘く	-11.2753
言われます	-11.2754
お問い合わせ	-11.2754
世界中	-11.2755
まくって	-11.2757
食べてる	-11.2757
に向けた	-11.2757
形態	-11.2758
がほとんど	-11.2759
の準備	-11.2759
攻撃力	-11.2762
掘って	-11.2764
もありますし	-11.2764
必要です	-11.2764
▁自分が	-11.2765
を持っていた	-11.2769
意思	-11.2769
安全に	-11.277
どうにか	-11.2771
押して	-11.2771
頑張ってる	-11.2771
さは	-11.2773
っきー	-11.2773
ロケット	-11.2773
の設定	-11.2774
重く	-11.2775
▁学校	-11.2776
の水	-11.2776
そういう話	-11.2776
海に	-11.2778
考えれば	-11.2779
私と一緒に	-11.2779
彼女を	-11.2781
になってから	-11.2781
が起きて	-11.2782
お客	-11.2782
がまた	-11.2782
ますけどね	-11.2783
人によって	-11.2784
足り	-11.2785
見たことない	-11.2787
注い	-11.2787
▁マイ	-11.2789
子だ	-11.2789
外に出	-11.279
▁ついて	-11.2791
をご紹介	-11.2792
大量	-11.2793
先ほども	-11.2794
謎の	-11.2794
しちゃ	-11.2795
駄目	-11.2796
どうなって	-11.2797
眠い	-11.2797
ぜひね	-11.2798
消費者	-11.2798
▁こいつ	-11.2798
忘れた	-11.28
事は	-11.2802
を表す	-11.2804
これじゃあ	-11.2805
は必ず	-11.2805
2015	-11.2806
強くなって	-11.2806
撮れ	-11.2807
でいうと	-11.2807
に到着	-11.2808
を呼び	-11.2808
ございまして	-11.2809
ストラップ	-11.2809
お見せ	-11.2812
しまーす	-11.2813
▁それと	-11.2814
いっていう	-11.2814
部隊	-11.2814
はなかなか	-11.2815
出ました	-11.2815
上部	-11.2815
いいわ	-11.2817
っていうことですね	-11.2818
進出	-11.2819
待っている	-11.2819
鯖	-11.2822
購読	-11.2822
排除	-11.2822
生涯	-11.2822
▁ng	-11.2822
協定	-11.2822
したんです	-11.2823
なぁと思います	-11.2824
焦	-11.2824
二度と	-11.2824
読者	-11.2824
やってくれ	-11.2825
ピック	-11.2826
廊下	-11.2827
が好きです	-11.2828
案件	-11.2828
なくちゃいけない	-11.2829
長崎	-11.2829
ぐらいから	-11.2831
進める	-11.2831
ot	-11.2832
圧倒的に	-11.2832
▁去年	-11.2833
当社	-11.2833
磨いて	-11.2836
ガイ	-11.2837
水に	-11.2837
人いる	-11.2837
説明を	-11.2838
そうだなぁ	-11.2839
だったか	-11.284
と思われる	-11.2841
度の	-11.2842
人々に	-11.2843
イラン	-11.2844
以外に	-11.2845
▁意外と	-11.2845
▁and	-11.2848
紹介する	-11.2854
告げ	-11.2855
女に	-11.2855
鍛え	-11.2855
平等	-11.2855
ディフェンス	-11.2856
かぶって	-11.2856
事前	-11.2857
はー	-11.286
▁彼	-11.286
役所	-11.2863
後方	-11.2865
親が	-11.2865
集会	-11.2869
女が	-11.287
今回の動画	-11.2871
の使用	-11.2871
の範囲	-11.2871
ですねそれ	-11.2872
信じる	-11.2873
んだろうね	-11.2876
シング	-11.2876
まあこれは	-11.2878
下げる	-11.2879
二次	-11.2879
出席	-11.288
にしろ	-11.288
を決めて	-11.2881
バレー	-11.2881
率が	-11.2881
▁どっち	-11.2882
頂	-11.2883
亡	-11.2883
灰	-11.2884
浴び	-11.2885
大事です	-11.2886
にわたって	-11.2886
というかまぁ	-11.2887
柔らかく	-11.2888
みな	-11.2888
るって言う	-11.2889
つながっている	-11.2891
海外の	-11.2891
ないとダメ	-11.2894
ッコ	-11.2895
バフ	-11.2896
と話し	-11.2896
疾患	-11.2897
俗	-11.2897
ガソリン	-11.2897
腎臓	-11.2897
浸透	-11.2897
移籍	-11.2898
た方が	-11.2899
▁were	-11.2899
謝罪	-11.2899
持ってい	-11.29
を止めて	-11.29
がどう	-11.29
体感	-11.2901
まぁその	-11.2902
隠して	-11.2902
らしくて	-11.2904
浄化	-11.2905
かなというふうに	-11.2905
デル	-11.2905
想	-11.2905
ないわ	-11.2906
結果的に	-11.2906
ノーマル	-11.2909
本当にありがとうございます	-11.291
時期に	-11.2913
信長	-11.2913
ll	-11.2913
愛し	-11.2914
しな	-11.2915
▁ps	-11.2916
▁このように	-11.2918
だったんだけど	-11.2918
リール	-11.2919
そこにいる	-11.2919
仕方	-11.2919
幼稚園	-11.292
釣って	-11.2921
2011	-11.2921
川の	-11.2922
同様	-11.2923
も出て	-11.2923
ore	-11.2925
いいぞ	-11.2925
リコ	-11.2925
側から	-11.293
この時点で	-11.2932
るっ	-11.2932
付ける	-11.2932
っくり	-11.2933
いつもの	-11.2933
おける	-11.2934
▁他に	-11.2935
したいな	-11.2936
▁英語	-11.2938
を教えてください	-11.2939
住んでいる	-11.2942
を感じ	-11.2943
人たちの	-11.2943
ていう	-11.2944
るべき	-11.2945
ボールが	-11.2945
のでこの	-11.2948
ちゃんとした	-11.2949
何時	-11.295
とかさ	-11.295
プリン	-11.2951
みん	-11.2951
レーン	-11.2952
あの時	-11.2953
支えて	-11.2954
これほど	-11.2956
をもっと	-11.2956
▁てください	-11.2957
化粧	-11.2959
当たらない	-11.2959
重ね	-11.2962
の母	-11.2962
を開く	-11.2963
新年	-11.2964
長官	-11.2964
本命	-11.2966
チーク	-11.2967
東北	-11.297
学校で	-11.2971
政府は	-11.2971
使いたい	-11.2971
お子	-11.2971
銅	-11.2971
遣	-11.2972
をしております	-11.2972
ジャイ	-11.2972
ね私	-11.2973
渋谷	-11.2973
好評	-11.2974
改良	-11.2974
精霊	-11.2974
プレミアム	-11.2974
ジャケット	-11.2974
77	-11.2974
カビ	-11.2976
バンク	-11.2977
摂取	-11.2977
▁今年	-11.2977
盛り上がって	-11.2978
止	-11.2978
者も	-11.2978
ボブ	-11.2979
同市	-11.298
たんですよね	-11.298
と思いまして	-11.298
▁めちゃめちゃ	-11.2982
に行ったら	-11.2986
を買い	-11.2988
を持っ	-11.2989
ハーブ	-11.2989
オンラインで	-11.299
もち	-11.2991
ましたん	-11.2991
更	-11.2993
サロン	-11.2993
のかという	-11.2993
になると思います	-11.2993
ったん	-11.2993
でない	-11.2994
かす	-11.2995
アジ	-11.2996
の原因	-11.2997
これまた	-11.2998
とします	-11.2999
右上	-11.3002
これぞ	-11.3003
落ち着いた	-11.3003
もらうと	-11.3003
を見つけた	-11.3004
よあ	-11.3004
を発表	-11.3004
よはい	-11.3005
月末	-11.3008
目線	-11.3009
やから	-11.3009
見れ	-11.3011
がり	-11.3016
をご覧下さい	-11.3018
日中	-11.3018
作っていく	-11.302
に置く	-11.3022
すすめ	-11.3024
2013	-11.3028
取り上げ	-11.3028
ほしいです	-11.3028
いやーこれ	-11.3029
ってやっぱり	-11.3031
いきますね	-11.3032
ぜー	-11.3033
みっ	-11.3033
今現在	-11.3034
は別に	-11.3034
もんで	-11.3034
うさ	-11.3035
しまうので	-11.3036
メロ	-11.3036
何かこう	-11.3037
モス	-11.3038
んですけどこれ	-11.3039
からすると	-11.3041
便利な	-11.3043
したらいい	-11.3043
トライ	-11.3043
で見て	-11.3045
桐	-11.3045
もいる	-11.3047
いっても	-11.3047
診	-11.3048
させていただいた	-11.3048
焼け	-11.3048
隅	-11.3048
何らかの	-11.3048
綿	-11.3049
仮想	-11.3049
脅威	-11.3049
序盤	-11.3049
復旧	-11.3049
特典	-11.305
しんどい	-11.305
わけですが	-11.305
▁who	-11.305
開業	-11.3051
すごかった	-11.3054
絞って	-11.3054
生え	-11.3055
ぐるぐる	-11.3056
▁led	-11.3057
石油	-11.3058
プラグ	-11.306
壊れて	-11.3062
66	-11.3063
はいでは	-11.3064
▁ここから	-11.3064
知れ	-11.3065
いう感じ	-11.3066
まずこの	-11.3066
大量に	-11.3067
病院に	-11.3068
▁ごめん	-11.3068
私達は	-11.307
を殺す	-11.307
私の心	-11.3074
効	-11.3074
仏教	-11.3074
を行っている	-11.3078
性質	-11.3079
ねそれで	-11.3081
美味しそう	-11.3081
せば	-11.3082
粒子	-11.3084
買いました	-11.3085
須	-11.3085
人とも	-11.3085
黒子	-11.3088
やろうと	-11.3088
ありましたけど	-11.3088
おら	-11.3089
▁まさか	-11.309
奪	-11.3092
こういうことを	-11.3094
しなくても	-11.3094
んとこ	-11.3097
差が	-11.3099
だったよ	-11.3101
るのに	-11.3103
あでも	-11.3104
生まれる	-11.3104
なんだろうな	-11.3104
8000	-11.3104
気を付け	-11.3105
誇り	-11.3105
絵本	-11.3107
関係の	-11.3108
どこへ	-11.3108
結構多い	-11.3109
働か	-11.3109
になりますが	-11.311
▁待って	-11.311
を見ます	-11.3115
根本	-11.3115
量の	-11.3116
ぱー	-11.3116
いてください	-11.3116
出ます	-11.3118
ジョージ	-11.3118
ないっていう	-11.312
すー	-11.3121
みたいなね	-11.3122
財	-11.3122
を見つけ	-11.3124
その人が	-11.3124
ミュージック	-11.3124
エラ	-11.3125
したんですよ	-11.3125
コンサート	-11.3126
鈍	-11.3126
です今日は	-11.3127
兄ちゃん	-11.3127
結成	-11.3127
▁till	-11.3127
惑星	-11.3127
期待して	-11.3129
を選んだ	-11.3129
とは違う	-11.3129
欲	-11.3131
難しかった	-11.3132
ますんで	-11.3133
やっていきたい	-11.3133
加えて	-11.3134
てしまいました	-11.3134
記号	-11.3137
られてる	-11.3138
真面目に	-11.3138
マインド	-11.3138
▁真	-11.314
ですよこれ	-11.3142
ももう	-11.3143
英国	-11.3144
身を	-11.3144
スペック	-11.3145
▁まあこれ	-11.3145
ガッツ	-11.3146
▁何を	-11.3147
貸し	-11.3148
あそこに	-11.3149
気にしない	-11.315
まあとりあえず	-11.315
リーチ	-11.315
▁以下	-11.3151
ことある	-11.3152
抜	-11.3153
減った	-11.3153
思	-11.3155
というところですね	-11.3157
の実	-11.3157
は絶対に	-11.316
上場	-11.3162
pp	-11.3163
構	-11.3164
が出来ました	-11.3164
存	-11.3165
ぴょん	-11.317
小型	-11.3171
もんな	-11.3173
望み	-11.3175
ちま	-11.3175
目指して	-11.3182
の森	-11.3183
したりする	-11.3184
方ですね	-11.3187
あげてください	-11.3189
されていません	-11.3189
山本	-11.319
ておく	-11.319
たいですね	-11.319
王者	-11.3193
塁	-11.3193
こんなの	-11.3194
に置いて	-11.3195
be	-11.3196
今井	-11.3196
たとき	-11.3196
注	-11.3197
よねぇ	-11.3197
中から	-11.3197
みたいの	-11.3197
週末	-11.3197
いくこと	-11.3198
境界	-11.3199
っていう風な	-11.3201
玄	-11.3203
雅	-11.3203
冷蔵庫	-11.3204
皇帝	-11.3204
インスタグラム	-11.3204
怪我	-11.3204
防災	-11.3204
新型コロナウイルス	-11.3204
けどあの	-11.3204
容易	-11.3204
ストリーム	-11.3204
so	-11.3205
を決める	-11.3205
してるんですよ	-11.3205
かれる	-11.3205
来ます	-11.3205
水槽	-11.3206
アイディア	-11.3206
呪文	-11.3206
嬉しかった	-11.3207
株式	-11.3207
応じ	-11.3208
何度か	-11.3209
あるんですが	-11.3209
エール	-11.3211
設	-11.3212
理解して	-11.3214
ビート	-11.3215
vo	-11.3216
運行	-11.3216
▁春	-11.3217
はここで	-11.3219
のかわからない	-11.322
マシ	-11.3222
は日本	-11.3222
出現	-11.3224
もう一人	-11.3225
見られ	-11.3225
上映	-11.3227
▁えーと	-11.3228
デモ	-11.3228
なんでしょうね	-11.3229
線を	-11.323
酸化	-11.3231
チート	-11.3232
老人	-11.3232
▁ap	-11.3236
すご	-11.3236
ッシャー	-11.3236
この時に	-11.3237
んであの	-11.3237
900	-11.324
が痛い	-11.3241
社内	-11.3241
かーっ	-11.3243
されたもの	-11.3243
空中	-11.3244
優秀な	-11.3245
やはりあの	-11.3245
パット	-11.3246
近所	-11.3248
歌手	-11.325
たという	-11.3251
▁とって	-11.3251
朝食	-11.3251
についてです	-11.3251
当日	-11.3252
ではありませんでした	-11.3253
なーっ	-11.3254
に加えて	-11.3254
徒	-11.3256
あるほど	-11.3256
なーとか	-11.3257
罪を	-11.3257
すごいな	-11.3258
54	-11.3259
することができ	-11.3262
そうと	-11.3262
のがこの	-11.3265
▁ea	-11.3265
わかっ	-11.3266
名は	-11.3267
レーター	-11.3268
の距離	-11.3268
にいた	-11.3268
これでいい	-11.3268
指数	-11.3269
なければなら	-11.3271
もそうですけど	-11.3272
富士山	-11.3273
▁ua	-11.3274
をやった	-11.3275
そうに	-11.3276
立派	-11.328
脅	-11.3281
気も	-11.3281
訴訟	-11.3282
瞑想	-11.3282
蓮	-11.3282
生姜	-11.3282
答弁	-11.3282
フォーカス	-11.3282
特許	-11.3282
思い出す	-11.3282
ウォーター	-11.3283
事業者	-11.3283
ファイター	-11.3284
きっちり	-11.3284
作者	-11.3284
わかりますか	-11.3287
ようなことを	-11.3287
比率	-11.3288
僕自身	-11.329
時が	-11.3292
jo	-11.3292
持っていく	-11.3293
らす	-11.3295
アメリカで	-11.3296
ならず	-11.3297
もう一つの	-11.3298
リアン	-11.33
を起こして	-11.3301
グループの	-11.3301
通す	-11.3305
結果として	-11.3305
軽減	-11.3306
ヤバ	-11.3307
▁あんまり	-11.331
というところが	-11.3311
するつもり	-11.3312
▁韓国	-11.3312
まぁだいたい	-11.3313
あってる	-11.3314
一層	-11.3315
行けば	-11.3315
しようと思います	-11.3315
と考えております	-11.3316
な方	-11.3317
季	-11.3319
しておりますので	-11.3319
洗い	-11.3319
られたら	-11.332
関係を	-11.3323
私は私が	-11.3324
あるでしょ	-11.3326
漢	-11.3328
言いますけど	-11.3328
うまくいって	-11.3328
でもあります	-11.3329
を読み	-11.333
ストリート	-11.3331
こりゃ	-11.3331
変わっ	-11.3334
友達が	-11.3334
広め	-11.3334
いきますので	-11.3335
ss	-11.3337
たね	-11.3337
していこうと思います	-11.3337
▁sp	-11.3337
引き上げ	-11.3338
促進	-11.3339
アッ	-11.3339
試して	-11.3339
組んだ	-11.3339
必要ない	-11.3342
人目	-11.3342
んじゃないでしょうか	-11.3343
んですねで	-11.3344
he	-11.3345
誰もいない	-11.3346
炉	-11.3347
てますね	-11.3347
教えてくれ	-11.3349
あくまでも	-11.3349
ゴロ	-11.335
にしか	-11.3355
1.5	-11.3355
菊	-11.336
思ったら	-11.336
オーストラリア	-11.336
ひっくり返	-11.336
プロデューサー	-11.336
オシャレ	-11.336
暮らす	-11.336
ka	-11.3361
かなりの	-11.3361
ギリシャ	-11.3361
民主主義	-11.3361
コレクション	-11.3361
って言ってた	-11.3362
ばかりの	-11.3362
使命	-11.3363
立ってる	-11.3363
マガジン	-11.3363
択	-11.3365
って事は	-11.3365
トークン	-11.3366
そうして	-11.3367
端末	-11.3369
▁阿部	-11.3369
っちゃん	-11.337
受信	-11.3371
悩んで	-11.3376
チェックして	-11.3376
アレンジ	-11.3378
求める	-11.3379
加え	-11.3379
暴力	-11.338
ブーン	-11.3381
を探す	-11.3383
とかそういうこと	-11.3383
トリー	-11.3383
シュー	-11.3383
とかな	-11.3384
薬を	-11.3384
力は	-11.3386
下で	-11.3386
もうすでに	-11.3388
といて	-11.3388
でございまして	-11.3389
クレイジー	-11.3389
000	-11.3389
アップル	-11.339
スロット	-11.3392
▁思う	-11.3394
に書いて	-11.3395
つーか	-11.3396
近くで	-11.3396
立てる	-11.3397
お城	-11.3398
リティ	-11.3398
みようか	-11.3399
ーなー	-11.34
私は私の	-11.3404
お子様	-11.3405
そう言う	-11.3407
弱く	-11.3409
▁岩	-11.341
外出	-11.3411
見つかった	-11.3412
妙	-11.3412
真ん中の	-11.3413
技術を	-11.3413
幸い	-11.3414
実際は	-11.3415
地で	-11.3416
の価値	-11.3419
のコーナー	-11.3419
な子	-11.3419
そりゃあ	-11.3421
でこれで	-11.3421
間違えて	-11.3426
かみ	-11.3427
極めて	-11.3427
硬く	-11.3431
ということだ	-11.3431
はいけません	-11.3432
されていました	-11.3433
否	-11.3435
ことができて	-11.3436
初期の	-11.3436
地の	-11.3439
上手に	-11.344
オープニング	-11.344
杖	-11.344
棚	-11.344
探求	-11.344
いいでしょう	-11.344
太鼓	-11.344
スピン	-11.344
でござい	-11.344
考えられる	-11.3441
感じだ	-11.3441
炒め	-11.3442
さんって	-11.3442
感覚で	-11.3442
たっけ	-11.3443
バンバン	-11.3444
浮気	-11.3444
難しいです	-11.3445
来てください	-11.3445
ただまぁ	-11.3445
量を	-11.3445
整形	-11.3446
カエル	-11.3448
ディス	-11.3453
動け	-11.3453
▁せっかく	-11.3454
半島	-11.3454
ぜっ	-11.3456
の海	-11.3456
▁てる	-11.3456
であるという	-11.3459
押	-11.346
の映画	-11.3464
おる	-11.3464
走った	-11.3465
めん	-11.3465
成人	-11.3465
この中	-11.3466
そうなんですけど	-11.3468
苦手な	-11.3469
の終わり	-11.3473
ページの	-11.3473
ことはできない	-11.3475
んですよこれ	-11.3475
との関係	-11.3477
ソング	-11.348
わたし	-11.348
のではないでしょうか	-11.3481
そして私たちは	-11.3482
これは何	-11.3482
一般の	-11.3484
と私	-11.3485
とけ	-11.3486
れたら	-11.3487
ノア	-11.3488
を学ぶ	-11.3488
おっと	-11.3489
巨人	-11.349
ロッド	-11.3491
ましたら	-11.3491
カメラの	-11.3492
本物の	-11.3492
▁di	-11.3497
直して	-11.3497
新鮮な	-11.3501
▁んん	-11.3503
に触れ	-11.3506
が終わった	-11.3507
無駄に	-11.3507
イイ	-11.3508
の足	-11.3508
があるん	-11.3509
やっても	-11.351
は完全に	-11.3511
頑張ってください	-11.3511
の命	-11.3511
88	-11.3511
よろしくお願います	-11.3512
るんですけれども	-11.3513
そうそうそうそう	-11.3515
思える	-11.3515
これなんか	-11.3515
られません	-11.3516
ありませんでした	-11.3517
りと	-11.3517
のが一番	-11.3519
浪	-11.3519
序	-11.3519
イブ	-11.3519
エジプト	-11.352
証言	-11.3521
追われ	-11.3521
創業	-11.3521
甲府	-11.3521
死刑	-11.3521
クレジットカード	-11.3521
ちゃうよ	-11.3522
うって	-11.3522
店に	-11.3522
級の	-11.3522
熱く	-11.3522
ガンガン	-11.3524
意外に	-11.3526
に入っている	-11.3527
トゥー	-11.3528
サイズの	-11.3533
の考え方	-11.3535
坊主	-11.3535
順位	-11.3537
度が	-11.3538
いないと	-11.3538
半端	-11.3538
選べる	-11.3538
中村	-11.354
になるのか	-11.354
デメリット	-11.354
すぎると	-11.3541
ドーン	-11.3542
の対象	-11.3542
たんですけども	-11.3542
になったり	-11.3543
おじいちゃん	-11.3544
カーズ	-11.3545
おねえ	-11.3546
イチ	-11.3546
の部分を	-11.3547
見ます	-11.3548
やりやすい	-11.3549
スムーズ	-11.355
以外は	-11.3551
きれ	-11.3552
そうですねー	-11.3553
は特に	-11.3555
静岡	-11.3556
▁now	-11.3557
時間くらい	-11.3558
ve	-11.3559
神様の	-11.3564
って言うのは	-11.3565
▁石	-11.3565
両手	-11.3566
の強さ	-11.3566
こういう風に	-11.3568
取ら	-11.3569
来ている	-11.357
もうすごい	-11.357
のテーマ	-11.3572
この番組	-11.3572
縛	-11.3573
と呼んで	-11.3573
テック	-11.3574
バブル	-11.3574
の質	-11.3575
生えて	-11.3576
れません	-11.3576
じゃないんですけど	-11.3577
ただけ	-11.3577
それらは	-11.3579
曲は	-11.3581
に入ると	-11.3581
犬の	-11.3581
か何か	-11.3582
お客様に	-11.3582
隠れて	-11.3583
ぱん	-11.3584
療法	-11.3584
現れた	-11.3585
まず最初に	-11.3586
▁お金	-11.3586
正確な	-11.3586
とか言う	-11.3587
は確か	-11.3587
しゃべ	-11.3588
ばあちゃん	-11.359
起こし	-11.3591
この中で	-11.3591
会が	-11.3592
浮いて	-11.3593
を忘れ	-11.3593
を行っています	-11.3594
分ける	-11.3595
ことができるように	-11.3596
セール	-11.3596
そしてまた	-11.3596
ということなので	-11.3596
高知	-11.3597
込めて	-11.3597
及	-11.3598
を開始し	-11.3598
▁wa	-11.3599
朝鮮	-11.3599
頻繁に	-11.36
魔理沙	-11.36
剃	-11.36
▁amazon	-11.36
警告	-11.36
彼と	-11.3601
緑は	-11.3601
用途	-11.3601
教材	-11.3602
しようとしている	-11.3602
の後に	-11.3603
ぶら	-11.3603
すっかり	-11.3605
なおかつ	-11.3605
を聞いた	-11.3606
ポッド	-11.3607
剥	-11.3608
単なる	-11.3609
ミドル	-11.3609
大津	-11.3611
出会った	-11.3611
動いている	-11.3612
以後	-11.3612
hi	-11.3612
にこう	-11.3617
くるので	-11.3618
体で	-11.3619
急い	-11.362
引っ	-11.362
を示し	-11.362
縛り	-11.3621
削	-11.3621
かき	-11.3623
あじゃあ	-11.3624
安全な	-11.3625
時間がかかる	-11.3625
未来の	-11.3625
いらっしゃった	-11.3626
披露	-11.3629
おば	-11.3631
やってみてください	-11.3632
だろうが	-11.3632
という気持ち	-11.3632
ここにあります	-11.3633
自立	-11.3633
わけではありません	-11.3633
の山	-11.3634
じゃないんです	-11.3635
ふふ	-11.3636
いくっていう	-11.3636
定番	-11.3637
例の	-11.364
ですねあのー	-11.364
踊	-11.3641
コミ	-11.3643
らへん	-11.3643
を取ります	-11.3643
左足	-11.3643
を出した	-11.3644
影響は	-11.3645
主催	-11.3645
▁ii	-11.3647
音も	-11.3647
の仲間	-11.3648
買え	-11.365
であれ	-11.3651
しようと思って	-11.3651
はまず	-11.3651
あれですね	-11.3653
しているという	-11.3654
の対応	-11.3655
揃え	-11.3656
労	-11.3659
答	-11.3659
またあの	-11.366
多くて	-11.3661
食べない	-11.3663
来てくれ	-11.3663
ない限り	-11.3663
と思ったけど	-11.3665
冬の	-11.3665
金で	-11.3665
▁写真	-11.3667
最小	-11.3669
ブロー	-11.367
の中にある	-11.3671
きょ	-11.3671
恥	-11.3673
することに	-11.3673
とそれから	-11.3674
ns	-11.3674
するんですね	-11.3675
出します	-11.3675
協議	-11.3675
言ったように	-11.3676
べきだ	-11.3677
長男	-11.3677
という状況	-11.3679
まあいろいろ	-11.3679
財務	-11.3681
のでそちら	-11.3681
鉢	-11.3682
親戚	-11.3682
ゼン	-11.3682
トータル	-11.3682
伊豆	-11.3682
除去	-11.3683
の試合	-11.3684
日も	-11.3685
装着	-11.3686
なしに	-11.3688
食べられ	-11.3688
偉大な	-11.3688
il	-11.3689
を集めて	-11.369
調べた	-11.3691
フォース	-11.3692
広がり	-11.3693
凄く	-11.3694
という事実	-11.3694
ご協力	-11.3696
ナル	-11.3696
お気に入り	-11.3696
言いましょう	-11.3698
素人	-11.3701
のビデオ	-11.3701
偉い	-11.3702
73	-11.3703
離れる	-11.3703
楽しめ	-11.3706
いこ	-11.3706
腕を	-11.3706
がいた	-11.3708
然	-11.3711
荒れ	-11.3711
▁el	-11.3712
の様子	-11.3712
嬉しく	-11.3713
るわけじゃない	-11.3714
▁分かった	-11.3714
チームが	-11.3715
んでー	-11.3715
という意味で	-11.3716
は違う	-11.3718
いいじゃない	-11.3719
ていること	-11.372
そうなんですよね	-11.372
にあたって	-11.372
ってた	-11.3724
あなたたち	-11.3724
その場で	-11.3725
楽しむ	-11.3725
とても良い	-11.3726
じょ	-11.3727
使	-11.3729
▁ネット	-11.3731
あるし	-11.3733
てるの	-11.3734
けどちょっと	-11.3735
いってください	-11.3736
良さそう	-11.3738
89	-11.374
許し	-11.374
っていう人	-11.3742
概要欄に	-11.3743
ろく	-11.3743
んあ	-11.3745
ファンド	-11.3746
▁さすがに	-11.3749
置きます	-11.375
の意見	-11.3751
ラッ	-11.3751
ものも	-11.3752
見つける	-11.3754
▁平成	-11.3754
いいんですか	-11.3755
辞め	-11.3756
その間に	-11.3757
社会人	-11.3761
寄り	-11.3761
てみましょう	-11.3761
を投げ	-11.3762
ノック	-11.3763
開い	-11.3763
入れ替え	-11.3763
ないんですけれども	-11.3763
あらかじめ	-11.3764
妖怪	-11.3764
麻痺	-11.3764
隻	-11.3764
セッティング	-11.3764
スポンサー	-11.3764
開設	-11.3764
交差	-11.3764
決まる	-11.3765
待機	-11.3765
天然	-11.3765
を前に	-11.3765
入試	-11.3765
ペダル	-11.3766
続いた	-11.3767
運び	-11.3767
これまでに	-11.3768
水道	-11.377
リッター	-11.3771
するんだ	-11.3771
▁es	-11.3772
住んでる	-11.3772
あもう	-11.3772
たいなぁ	-11.3773
を送り	-11.3773
現在は	-11.3775
わせ	-11.3775
きますね	-11.3777
端っこ	-11.3778
は彼が	-11.3778
飛ばして	-11.3781
全力で	-11.3782
代目	-11.3782
いらん	-11.3784
メインの	-11.3785
東海	-11.3785
えない	-11.3788
あること	-11.3788
シック	-11.3791
切れて	-11.3791
も多く	-11.3795
今日から	-11.3795
おしゃれ	-11.3796
▁今度	-11.3797
危	-11.3798
初代	-11.3798
そんなの	-11.3799
全部で	-11.3799
がんばれ	-11.38
は私に	-11.38
書きます	-11.38
安倍	-11.3801
機の	-11.3802
キーボード	-11.3803
秋田	-11.3803
下がった	-11.3806
ねえよ	-11.3807
人ぐらい	-11.3809
試し	-11.381
バリー	-11.3811
リク	-11.3812
そういう風に	-11.3812
致	-11.3812
応	-11.3814
神様が	-11.3814
っていう意味	-11.3817
も違う	-11.3817
ああそう	-11.3818
ート	-11.3818
かわからない	-11.3819
バナー	-11.3819
買えない	-11.3819
機材	-11.382
双	-11.3821
▁プー	-11.3822
を手に入れる	-11.3822
たなぁ	-11.3822
まぁ実際	-11.3824
上田	-11.3824
ように見えます	-11.3825
を残して	-11.3825
せます	-11.3825
▁そんなに	-11.3827
取られ	-11.3828
嬢	-11.3828
そうなんですか	-11.3828
を使います	-11.3831
▁一度	-11.3831
フェイ	-11.3831
tt	-11.3832
際は	-11.3833
商業	-11.3833
マール	-11.3833
ps	-11.3835
聞いたこと	-11.3835
どうするか	-11.3836
の一人	-11.3837
なかなか難しい	-11.3837
になってい	-11.3839
イト	-11.384
やってみる	-11.384
ci	-11.384
ありがとうございまーす	-11.384
あれだけ	-11.3841
を連れて	-11.3841
きら	-11.3842
▁すげー	-11.3842
テレビの	-11.3843
鎖	-11.3844
同様に	-11.3844
つ目は	-11.3845
珍	-11.3845
免	-11.3846
ですよねこれ	-11.3846
笠	-11.3846
デザイナー	-11.3846
抽選	-11.3846
高価な	-11.3847
突っ込んで	-11.3848
▁dah	-11.3849
思いますね	-11.3849
賃金	-11.3849
エッ	-11.3849
次郎	-11.385
特急	-11.385
スポ	-11.3851
出荷	-11.3852
ミックス	-11.3852
会おう	-11.3852
言い訳	-11.3854
こな	-11.3857
の基本	-11.3858
について話し	-11.3859
の詳細	-11.3859
になるように	-11.3859
を取得	-11.3859
東大	-11.3859
伸ばし	-11.386
研究室	-11.3861
なくなっちゃった	-11.3862
の大きな	-11.3862
でしたら	-11.3864
なくちゃ	-11.3865
以内に	-11.3865
館で	-11.3865
中心に	-11.3866
るため	-11.3869
人のために	-11.3869
言葉は	-11.3869
感じがします	-11.387
切断	-11.3871
▁ab	-11.3871
男性の	-11.3871
なるん	-11.3873
自分と	-11.3874
ことができれば	-11.3875
のかというと	-11.3875
口から	-11.3876
全ての	-11.3877
を担当	-11.3877
われて	-11.3878
上がっている	-11.3878
じゅ	-11.3878
▁ごめんなさい	-11.388
コメントで	-11.388
何言って	-11.388
土産	-11.3881
▁ジャ	-11.3881
は大丈夫	-11.3883
トラン	-11.3884
▁はぁ	-11.3886
日産	-11.389
▁お腹	-11.389
になろう	-11.3891
してしまって	-11.3891
キッ	-11.3892
ニット	-11.3893
かあっ	-11.3893
髪が	-11.3894
なくなってしまう	-11.3895
▁いわゆる	-11.3896
これ何	-11.3896
わかってない	-11.3899
が見え	-11.39
そうする	-11.39
でもまあ	-11.3903
ご自身	-11.3904
なあー	-11.3904
たいっ	-11.3906
を知っ	-11.3906
感を	-11.3908
じゃう	-11.3909
▁car	-11.3909
じゃないんだよ	-11.391
語った	-11.391
戦闘機	-11.3912
わからなかった	-11.3912
溜まって	-11.3915
交わ	-11.3916
なっていうふうに	-11.3916
を実施	-11.3921
したんだ	-11.3924
竹林	-11.3924
ut	-11.3926
しかーし	-11.3926
注意してください	-11.3926
ねまだ	-11.3928
トヨタ	-11.393
麻雀	-11.393
ウェブサイト	-11.393
ネオ	-11.3931
フィッシュ	-11.3931
シャンプー	-11.3931
紅葉	-11.3931
親切	-11.3932
木曜日	-11.3932
推し	-11.3933
みようかな	-11.3936
その上で	-11.3936
中野	-11.3938
ty	-11.3939
元気に	-11.394
早期	-11.394
そういうのも	-11.3942
尋ねる	-11.3943
駅前	-11.3945
兆円	-11.3946
電圧	-11.3949
にしました	-11.3949
らいい	-11.395
▁こちらは	-11.3952
そうすれば	-11.3952
の会社	-11.3953
ワイヤー	-11.3955
火を	-11.3958
はどうですか	-11.3959
ませんよ	-11.3959
ろん	-11.3959
57	-11.396
酷い	-11.396
あーこれ	-11.396
価値が	-11.3961
家事	-11.3962
スって	-11.3962
ものですね	-11.3962
ご覧になって	-11.3963
日本一	-11.3963
ムラ	-11.3963
しゃべって	-11.3966
ミル	-11.3966
が起き	-11.3968
中断	-11.397
たねー	-11.397
できますよ	-11.3971
止めた	-11.3971
ていきたい	-11.3971
味は	-11.3972
データの	-11.3972
▁パワー	-11.3973
に挑戦	-11.3974
▁人間	-11.3975
ちょっと前	-11.3976
いうところ	-11.3976
甘え	-11.3977
わけですけど	-11.3977
就	-11.3978
というのはですね	-11.3978
鋭	-11.3979
ではある	-11.3979
ある種の	-11.398
敷	-11.3981
スコ	-11.3981
点目	-11.3982
出せない	-11.3986
あそ	-11.3987
ごま	-11.3988
染	-11.3988
の攻撃	-11.399
トラップ	-11.3991
いただい	-11.3991
短期	-11.3992
戻ってくる	-11.3993
のバランス	-11.3993
なあと	-11.3994
は実際に	-11.3995
▁人生	-11.3997
があ	-11.3997
の経験	-11.3997
物が	-11.3998
させていただく	-11.3999
年間の	-11.3999
を覚え	-11.4
箸	-11.4001
そんなことを	-11.4002
ビック	-11.4002
をとる	-11.4004
いくという	-11.4004
画面の	-11.4005
らく	-11.4006
弾いて	-11.4006
が生まれ	-11.4007
間違っている	-11.4007
こうなって	-11.4008
学会	-11.4008
▁ところが	-11.4008
の頭	-11.4008
濁	-11.4008
お聞き	-11.4009
をしたり	-11.4009
▁いうことで	-11.401
だけじゃ	-11.4012
色を	-11.4012
RNA	-11.4014
肘	-11.4014
支給	-11.4014
使おう	-11.4014
貴族	-11.4014
▁長	-11.4015
ぐらいしか	-11.4015
オタク	-11.4019
しますと	-11.4021
課長	-11.4022
を通って	-11.4022
表明	-11.4024
ドリ	-11.4025
ライズ	-11.4025
まく	-11.4025
ドール	-11.4025
あそこの	-11.4025
叩く	-11.4026
かといいますと	-11.4027
▁面白い	-11.4027
参戦	-11.4029
エディ	-11.403
それであの	-11.4031
西武	-11.4031
じゃあその	-11.4032
たくさんあります	-11.4032
すれ	-11.4035
得て	-11.4035
ことなく	-11.4038
残して	-11.404
ざる	-11.404
買ってる	-11.404
外して	-11.4041
を与えます	-11.4042
悔しい	-11.4043
すごいよ	-11.4043
に関し	-11.4044
て言って	-11.4045
夕	-11.4045
赤く	-11.4045
単体	-11.4047
をずっと	-11.4047
ていっ	-11.4047
va	-11.4048
を決め	-11.4051
110	-11.4051
そうなると	-11.4052
朝から	-11.4053
得意な	-11.4053
こともできる	-11.4054
っていう形	-11.4055
していただいた	-11.4056
年間で	-11.4058
ロシアの	-11.4058
が多いので	-11.4058
ちょっとこの	-11.4058
で最も	-11.4058
休んで	-11.4059
あなたと一緒に	-11.4059
然と	-11.4059
各種	-11.4061
どうしようかな	-11.4062
あるある	-11.4062
何年も	-11.4063
デカ	-11.4063
いましたが	-11.4063
デュー	-11.4064
人間関係	-11.4064
お題	-11.4065
お楽しみ	-11.4067
▁ぱ	-11.4069
走れ	-11.4071
あなたはあなたが	-11.4073
今週	-11.4074
思わない	-11.4074
それではまた	-11.4076
に住んでいる	-11.4076
がちゃんと	-11.4076
140	-11.4078
ですかはい	-11.4079
君と	-11.4079
ブス	-11.4084
所が	-11.4085
葬	-11.4085
チック	-11.4086
言われたら	-11.4087
使われ	-11.4087
につけて	-11.4087
支払	-11.4088
むら	-11.4088
コメ	-11.4089
明らか	-11.4089
現れ	-11.4089
このカード	-11.4089
名を	-11.409
なるので	-11.409
アバ	-11.4092
何なのか	-11.4092
あぶ	-11.4092
ロケ	-11.4092
担当者	-11.4093
立てて	-11.4096
ちなみ	-11.4097
になるの	-11.4097
胆	-11.4098
プログラミング	-11.4098
ううっうぅうう	-11.4098
ミュージシャン	-11.4098
清掃	-11.4098
ボロボロ	-11.4099
遺跡	-11.4099
視覚	-11.4099
通貨	-11.4099
就任	-11.4099
引っ張り	-11.4099
稼いで	-11.4099
具体的には	-11.4099
選定	-11.41
クーラー	-11.4101
何かあった	-11.4101
特集	-11.4102
のグループ	-11.4103
おつかれさまでした	-11.4104
してみたいと思います	-11.4105
本土	-11.4105
キラ	-11.4106
っていうところが	-11.4108
ねーっ	-11.4108
投入	-11.4109
微妙な	-11.4109
村さん	-11.4111
大学院	-11.4112
ケー	-11.4113
起訴	-11.4113
なことを	-11.4113
上限	-11.4114
解体	-11.4114
た方	-11.4115
の映像	-11.4115
させてもらって	-11.4116
物事を	-11.4116
野さん	-11.4117
どちらが	-11.4118
るほど	-11.4119
分布	-11.412
ンと	-11.412
必要はありません	-11.412
350	-11.4121
▁普通の	-11.4121
をやっている	-11.4121
72	-11.4122
のホームページ	-11.4122
というそういう	-11.4122
蹴り	-11.4125
きゅん	-11.4126
ヨガ	-11.4126
の部分が	-11.4126
ないね	-11.4127
▁松	-11.4127
くなる	-11.4128
振っ	-11.4128
あそう	-11.4129
▁ジャン	-11.413
仕事は	-11.413
四国	-11.4131
他社	-11.4132
な話	-11.4132
▁S	-11.4132
どうやったら	-11.4132
はそれが	-11.4133
似たような	-11.4134
作曲	-11.4136
ファイト	-11.4136
綺麗です	-11.4136
bu	-11.4136
進んだ	-11.4137
の代表	-11.4139
マーチ	-11.4139
つないで	-11.414
の間の	-11.414
かということ	-11.414
を検討	-11.4141
膝を	-11.4142
やばいやばい	-11.4142
完成です	-11.4142
もう全然	-11.4144
の御	-11.4144
つなげ	-11.4145
ワクワク	-11.4147
のイベント	-11.4147
先は	-11.4148
これからの	-11.4148
ゲームで	-11.4149
って本当に	-11.415
どれほど	-11.4152
じゃないですかね	-11.4152
吐き	-11.4156
ーちゃん	-11.4156
たいという	-11.4158
部分の	-11.4159
じっと	-11.416
車は	-11.416
つなげて	-11.4161
が終わって	-11.4161
会って	-11.4161
しねえ	-11.4164
んじ	-11.4165
させたい	-11.4166
ことを言って	-11.4166
mar	-11.4167
ところだ	-11.4168
会合	-11.4168
付き合い	-11.4169
してるよ	-11.4171
スペル	-11.4174
▁どうやって	-11.4174
説明する	-11.4174
分野で	-11.4174
-4	-11.4176
した方が	-11.4177
動いた	-11.4178
の気持ち	-11.4178
的的	-11.4181
ていただいて	-11.4182
なかったの	-11.4184
おった	-11.4184
で作って	-11.4184
ショッピング	-11.4184
同じこと	-11.4184
キラキラ	-11.4184
懸命	-11.4184
スキップ	-11.4184
2.5	-11.4184
クリスチャン	-11.4185
関わり	-11.4185
チョコレート	-11.4185
責め	-11.4185
防具	-11.4185
何年	-11.4186
漬け	-11.4186
位置に	-11.4186
工房	-11.4188
ラインが	-11.4189
▁pot	-11.4189
閉じ	-11.419
変えた	-11.419
wo	-11.4191
硬	-11.4191
速さ	-11.4194
行くぞ	-11.4195
▁まあこの	-11.4196
業種	-11.4197
んだと思います	-11.4198
脳が	-11.4198
ルーフ	-11.4198
行った時に	-11.4199
されたり	-11.42
最強の	-11.42
清水	-11.42
感染者	-11.4201
私はあなた	-11.4201
ですねえっと	-11.4201
いうことを	-11.4203
▁japan	-11.4203
行ってみましょう	-11.4203
なかったんです	-11.4206
あれこれ	-11.4206
こう言って	-11.4207
周目	-11.4207
主体	-11.4207
仕事で	-11.4207
データベース	-11.4208
概要欄	-11.4209
そら	-11.4211
奥に	-11.4212
げー	-11.4213
▁ハ	-11.4213
ジャム	-11.4216
売れて	-11.4216
噛み	-11.4217
あの本当に	-11.4217
が起きる	-11.4222
結構な	-11.4226
立ち上がり	-11.4226
説明書	-11.4227
▁味	-11.4227
右足	-11.4228
が始まって	-11.4231
暴れ	-11.4232
は決して	-11.4233
理由が	-11.4233
sp	-11.4233
怖	-11.4234
てねー	-11.4235
と思ったんですけど	-11.4237
子供に	-11.4237
もあれば	-11.4237
セミ	-11.4238
ki	-11.424
それはそれで	-11.4242
やられて	-11.4242
えば	-11.4243
台本	-11.4244
流行って	-11.4245
示す	-11.4245
▁女性	-11.4246
かかります	-11.4247
言ってました	-11.4248
の葉	-11.4249
なと思いました	-11.4249
ないな	-11.425
行動を	-11.425
航	-11.425
してみ	-11.4251
をどう	-11.4251
果て	-11.4251
を得た	-11.4251
兆	-11.4253
署	-11.4255
一連の	-11.4256
ハメ	-11.4256
大きくなって	-11.4256
れん	-11.4257
に来ました	-11.4259
サボ	-11.4261
ことと	-11.4261
岐	-11.4261
▁だいぶ	-11.4261
戻して	-11.4261
2008	-11.4262
私はまだ	-11.4263
マナ	-11.4265
説明した	-11.4265
いますよ	-11.4267
ることが	-11.4267
助ける	-11.4267
コーデ	-11.4269
はっはっはっ	-11.4269
恩	-11.4269
沙	-11.427
召	-11.427
刑務所	-11.427
抑制	-11.427
エージェント	-11.427
救助	-11.427
うるさい	-11.427
動脈	-11.427
買わ	-11.4271
いわば	-11.4271
されてない	-11.4271
上がります	-11.4271
あげます	-11.4272
帰っ	-11.4272
喋り	-11.4274
ハンマー	-11.4276
ate	-11.4276
不良	-11.4277
わって	-11.4277
そうですねまぁ	-11.4277
ジング	-11.4278
縫い	-11.4279
飛ばし	-11.428
坊さん	-11.428
釈	-11.4281
超える	-11.4282
だらけ	-11.4282
▁多い	-11.4283
寝てる	-11.4283
概要	-11.4283
てみ	-11.4284
人達	-11.4284
その人	-11.4287
んですけどその	-11.4288
大事なこと	-11.4288
ana	-11.4288
広場	-11.4292
ないとか	-11.4292
世界中の	-11.4293
れい	-11.4293
いつまでも	-11.4294
それでいい	-11.4295
有料	-11.4296
イッ	-11.4296
こういう風な	-11.4296
見かけ	-11.4297
変動	-11.4298
▁さっきの	-11.4298
持っていない	-11.4299
言われてる	-11.4303
ようにしてください	-11.4304
なくなり	-11.4305
▁usb	-11.4305
てしまいます	-11.4308
過程	-11.4309
ことがあって	-11.4309
があるんですけれども	-11.431
友達と	-11.4313
かれた	-11.4313
特殊な	-11.4314
してるん	-11.4314
やめる	-11.4315
を実行する	-11.4315
っていう方	-11.4316
作業を	-11.4317
ナス	-11.4318
ずれて	-11.4319
なんていうの	-11.4319
生み出	-11.4319
方には	-11.432
ありがとうございましたーーー	-11.432
各国	-11.432
に感謝します	-11.4324
何のために	-11.4325
下部	-11.4325
曲がり	-11.4326
主人	-11.4329
立っている	-11.433
の第	-11.433
合ってる	-11.433
かということを	-11.4336
を失った	-11.4337
気になります	-11.4338
変わら	-11.4338
必要があり	-11.4338
は神	-11.4339
左側に	-11.4339
▁わかりました	-11.434
んだねー	-11.4341
専	-11.4341
エコー	-11.4343
の息子	-11.4344
あげよう	-11.4345
インフラ	-11.4346
の最後の	-11.4347
顔に	-11.4347
距離を	-11.435
まゆ	-11.435
来ています	-11.4351
伏せ	-11.4351
あったんです	-11.4353
決まってる	-11.4355
てく	-11.4355
するまで	-11.4355
です今回は	-11.4356
した上で	-11.4357
をまず	-11.4357
博物館	-11.4357
規則	-11.4357
懸念	-11.4357
予選	-11.4357
大幅に	-11.4358
トレーナー	-11.4358
牧師	-11.4358
臨床	-11.4358
フェル	-11.4359
ベロ	-11.4359
据え	-11.4359
ボーダー	-11.436
家賃	-11.436
▁そして私は	-11.4361
と言っても	-11.4362
合図	-11.4362
教員	-11.4362
山頂	-11.4363
▁秋	-11.4363
育ち	-11.4363
あるような	-11.4364
という話を	-11.4364
聞こえて	-11.4364
手の	-11.4365
▁そりゃ	-11.4366
サイバー	-11.4367
この問題	-11.4368
こっちで	-11.4368
司会	-11.4369
お肉	-11.4369
ロウ	-11.437
形を	-11.4371
貫通	-11.4372
何故	-11.4374
ひどく	-11.4374
が増え	-11.4375
負けない	-11.4377
作品を	-11.4377
だん	-11.438
▁安	-11.4381
っていうのがある	-11.4381
お笑い	-11.4381
羽生	-11.4382
通りの	-11.4383
一種の	-11.4384
はできない	-11.4384
ようとして	-11.4384
疑	-11.4384
スイート	-11.4385
火事	-11.4385
書かれた	-11.4388
▁ce	-11.4388
迷う	-11.4389
見ました	-11.4392
を言った	-11.4394
の姉	-11.4394
を込めて	-11.4395
勝者	-11.4397
委員長	-11.4397
話しかけ	-11.44
を楽しむ	-11.4401
仕上がり	-11.4404
みたいなやつ	-11.4404
なれる	-11.4406
初見	-11.4406
効果的	-11.4412
態	-11.4412
したと	-11.4416
まあいろんな	-11.4416
言われています	-11.4416
ッタ	-11.4417
シル	-11.4418
mg	-11.4419
こうなんか	-11.4419
揃って	-11.442
続けている	-11.4421
じっ	-11.4422
を持ってい	-11.4423
よという	-11.4424
次の日	-11.4424
はいつ	-11.4426
ちまった	-11.4426
率は	-11.4427
が入っています	-11.4428
休日	-11.4428
一つずつ	-11.443
かく	-11.4431
あるのかな	-11.4431
もらえたら	-11.4431
オル	-11.4432
容	-11.4433
理由を	-11.4436
どうなのか	-11.4436
将来の	-11.4437
荘	-11.4437
松井	-11.4438
いいんじゃないかな	-11.4439
どんなこと	-11.4439
だったんですけれども	-11.4439
こま	-11.4439
方法が	-11.444
一例	-11.4441
示し	-11.4441
プレゼン	-11.4442
立体	-11.4443
指揮	-11.4444
太い	-11.4445
インドネシア	-11.4445
探索	-11.4445
メカニズム	-11.4445
李	-11.4445
軌道	-11.4445
騎士	-11.4445
封印	-11.4445
筋トレ	-11.4446
移植	-11.4446
ちっちゃく	-11.4446
込ん	-11.4446
ちょちょ	-11.4446
ドッグ	-11.4446
違法	-11.4446
またねー	-11.4446
2014	-11.4446
観光客	-11.4447
争	-11.4448
暴走	-11.4449
これじゃ	-11.4449
取れた	-11.4449
外す	-11.445
いるかと言うと	-11.445
歩道	-11.445
電流	-11.445
補足	-11.4451
▁彼女	-11.4453
新品	-11.4453
エク	-11.4453
空に	-11.4453
分岐	-11.4454
をしていく	-11.4454
ルの	-11.4455
ちら	-11.4455
くっついて	-11.4456
かわいそう	-11.4457
疑い	-11.4459
スキャン	-11.446
が多分	-11.4461
アーク	-11.4462
意味がある	-11.4462
トリガー	-11.4465
▁影響	-11.4465
かっていうのは	-11.4466
挙げた	-11.4467
ばら	-11.4468
ローカル	-11.4468
状況に	-11.4468
吸	-11.4469
添付	-11.447
母さん	-11.4471
時間帯	-11.4472
僕と	-11.4473
ならん	-11.4473
張った	-11.4473
の影響で	-11.4474
向けの	-11.4476
確実	-11.4476
製の	-11.4479
▁どうか	-11.448
作りたい	-11.4481
生きた	-11.4482
ガッ	-11.4482
が必要だ	-11.4484
とかある	-11.4485
そう思う	-11.4486
強くて	-11.4487
ますかね	-11.4487
分散	-11.4487
ホッ	-11.4487
見ていきたいとおもいます	-11.4488
でしょこれ	-11.4489
くす	-11.449
とかその	-11.449
聞け	-11.4491
とかじゃなくて	-11.4491
色違い	-11.4492
君に	-11.4492
今更	-11.4494
いるということ	-11.4494
ヴェ	-11.4494
効果を	-11.4495
ファンの	-11.4496
見えてる	-11.4497
地に	-11.4497
おやつ	-11.4497
と思われ	-11.45
これについて	-11.45
▁ak	-11.4502
かなという	-11.4503
たちと	-11.4504
注意して	-11.4505
しかありません	-11.4505
▁敵	-11.4507
でねー	-11.4508
すき	-11.4509
上り	-11.4509
街道	-11.4509
者です	-11.4513
を受けている	-11.4514
触れて	-11.4515
してみます	-11.4515
ですねあ	-11.4516
狩	-11.4517
柔軟	-11.4517
ハッハー	-11.4517
含まれている	-11.4518
封	-11.452
聞きました	-11.452
ある方	-11.4521
▁うっ	-11.4521
んですかねぇ	-11.4521
を送る	-11.4521
らなかった	-11.4522
可能です	-11.4523
度か	-11.4523
障害者	-11.4524
人か	-11.4524
えええええ	-11.4526
体型	-11.4526
糖	-11.4527
は私たちが	-11.4528
▁牛	-11.4528
代替	-11.4529
変わりました	-11.453
フェーズ	-11.4533
モチベーション	-11.4533
抗議	-11.4533
範囲で	-11.4534
ホルモン	-11.4534
レンタル	-11.4534
ダサい	-11.4534
開幕	-11.4534
どうなった	-11.4535
ーション	-11.4538
から見ると	-11.4538
▁fa	-11.4539
そうだねー	-11.4539
の選手	-11.454
大きかった	-11.454
スケ	-11.4541
民主	-11.4541
耐性	-11.4541
制約	-11.4541
んじゃねー	-11.4543
髪型	-11.4543
ことを言う	-11.4543
の役割	-11.4544
それだ	-11.4544
てもらって	-11.4544
▁her	-11.4544
52	-11.4544
たほうがいい	-11.4544
はダメ	-11.4545
近年	-11.4545
ざっ	-11.4545
多くの人	-11.4549
学科	-11.455
住所	-11.4552
移行	-11.4552
さくら	-11.4553
上がれ	-11.4554
を開け	-11.4555
いただいております	-11.4555
描いた	-11.4555
書き方	-11.4556
秒間	-11.4557
も今	-11.4557
でっかい	-11.4558
お疲れ様です	-11.4558
行ってる	-11.4558
やつで	-11.4558
前向き	-11.4559
普段は	-11.456
コル	-11.4561
ano	-11.4562
行われます	-11.4562
真面目な	-11.4563
あーなるほど	-11.4563
んですよで	-11.4563
くれません	-11.4564
▁すぐに	-11.4565
ておきます	-11.4569
大豆	-11.4569
の活動	-11.457
ブリッジ	-11.4573
取られて	-11.4575
わけじゃ	-11.4576
登る	-11.4577
つもりで	-11.4579
でその後	-11.4579
天下	-11.458
でそれが	-11.458
幸せに	-11.458
たくさんある	-11.458
おすすめの	-11.4581
漏	-11.4581
可能性は	-11.4583
フライト	-11.4583
くるくる	-11.4583
いたこと	-11.4585
gu	-11.4585
参考にして	-11.4587
ber	-11.4588
大陸	-11.4589
着替え	-11.459
しまし	-11.459
感じがする	-11.4591
に乗り	-11.4594
ってくれる	-11.4594
でしたねー	-11.4594
の評価	-11.4594
壊し	-11.4597
からこの	-11.4597
へ行って	-11.4598
ドリー	-11.4598
広げ	-11.46
なんだな	-11.4601
96	-11.4602
穴を	-11.4603
疲れて	-11.4603
出なかった	-11.4604
▁たとえば	-11.4605
味を	-11.4605
ぜひとも	-11.4606
てるんですけど	-11.4607
▁ございました	-11.4607
花を	-11.4607
▁御	-11.4608
も大丈夫	-11.4608
品の	-11.4608
もやって	-11.4609
が変わった	-11.4612
でお会いしましょう	-11.4613
初めに	-11.4614
とかあるいは	-11.4616
グリー	-11.4616
冷静	-11.4617
▁-	-11.4618
絵が	-11.4618
拝	-11.4618
壮	-11.4619
クン	-11.462
これもう	-11.4621
癌	-11.4622
いかがだったでしょうか	-11.4622
佳	-11.4623
スッキリ	-11.4623
承知	-11.4623
こだわって	-11.4623
悪かった	-11.4623
近づけ	-11.4623
197	-11.4623
わけでもない	-11.4623
and	-11.4623
内容を	-11.4623
為	-11.4624
受注	-11.4624
に行け	-11.4625
ダンジョン	-11.4625
ウェーブ	-11.4625
集まった	-11.4625
紹介します	-11.4625
原子力	-11.4626
人気の	-11.4626
汚染	-11.4626
がしっかり	-11.4626
fl	-11.4627
らーん	-11.4627
込まれて	-11.4628
放射線	-11.4628
固まって	-11.4629
なんじゃない	-11.4629
環境に	-11.4633
▁越冬	-11.4633
ていきたいとおもいます	-11.4633
スリ	-11.4633
国境	-11.4636
変わらず	-11.4636
かなと思うんですけど	-11.4637
我が	-11.4637
握り	-11.4637
んだか	-11.4638
本社	-11.4638
▁ダメ	-11.4638
が高	-11.4639
ms	-11.464
載	-11.4641
選手に	-11.4641
時って	-11.4644
んじゃあ	-11.4647
よねうん	-11.4647
第三	-11.4648
釣れる	-11.4648
やってみて	-11.4649
故	-11.4653
も良い	-11.4653
▁馬	-11.4653
んだっていう	-11.4654
意義	-11.4655
専用の	-11.4655
チャンネルの	-11.4655
ドイツの	-11.4656
ウェ	-11.4658
bc	-11.4659
する時	-11.4659
次へ	-11.466
がありますよね	-11.466
するぞ	-11.4662
水曜日	-11.4662
政治的	-11.4662
文学	-11.4664
これねー	-11.4664
▁bouvet	-11.4665
だと思うので	-11.4666
洗って	-11.4666
という方は	-11.4669
クールな	-11.467
右側に	-11.467
言うの	-11.4672
2012	-11.4673
削って	-11.4675
強力	-11.4677
いねえ	-11.4678
グッドボタン	-11.4681
うそ	-11.4683
だけなので	-11.4684
運んで	-11.4686
くそ	-11.4687
おっん	-11.4687
お昼	-11.4688
させるために	-11.4689
も入って	-11.4689
部下	-11.4692
が同じ	-11.4693
をさせて	-11.4694
いますよね	-11.4695
ずる	-11.4695
進んでいく	-11.4696
の女の子	-11.4697
ゆり	-11.4697
ものではない	-11.4698
爺	-11.4703
っていうのがあって	-11.4704
なぁこれ	-11.4705
僕らの	-11.4705
愛を	-11.4707
肥	-11.4707
道は	-11.4707
どうすれば	-11.4708
っていうのと	-11.4709
ホイ	-11.4709
して言って	-11.4711
勘	-11.4711
▁jp	-11.4712
茎	-11.4712
免疫	-11.4713
枕	-11.4713
ビジュアル	-11.4713
解析	-11.4713
多摩	-11.4713
上る	-11.4713
欧米	-11.4714
満ち	-11.4715
歯科	-11.4715
ブラウン	-11.4715
パスワード	-11.4716
系統	-11.4716
るのかな	-11.4717
おいしく	-11.4717
喜ぶ	-11.4717
理解する	-11.4718
商店	-11.4718
失敗した	-11.4719
時刻	-11.4719
減る	-11.4719
ああもう	-11.472
▁pop	-11.4723
木材	-11.4723
あげましょう	-11.4724
男性が	-11.4726
がいない	-11.4728
よいしょ	-11.4729
一種	-11.473
よもう	-11.473
んぼ	-11.4733
墓地	-11.4733
が足りない	-11.4734
駅の	-11.4734
やつですね	-11.4734
してみる	-11.4735
撮	-11.4736
▁あまり	-11.4736
大変なこと	-11.4738
に直接	-11.4738
ゆき	-11.4738
施	-11.4739
奪われ	-11.474
ようとする	-11.4741
を聞き	-11.4742
ああ的	-11.4743
踊る	-11.4743
こう言う	-11.4744
▁毎日	-11.4745
しているか	-11.4747
家の中	-11.4747
できず	-11.4748
▁お願い	-11.475
の奥	-11.4752
てから	-11.4752
になるん	-11.4753
増えている	-11.4756
▁うって	-11.4756
確かめ	-11.4757
今ね	-11.4758
バリア	-11.4758
みさん	-11.4759
年代の	-11.4759
▁チャンネル登録	-11.4759
審議	-11.4761
一発で	-11.4762
なんですけれど	-11.4762
お楽しみに	-11.4763
んじゃないかなと思う	-11.4764
を使用します	-11.4764
が悪く	-11.4765
ありそう	-11.4765
が発生する	-11.4766
るかな	-11.4766
おりますけれども	-11.4766
魔王	-11.4767
クズ	-11.4768
話だ	-11.4768
スムーズに	-11.4769
してみた	-11.477
たちを	-11.477
ゾン	-11.477
あなたはそれが	-11.4772
捉えて	-11.4772
ガーン	-11.4773
無事に	-11.4773
年半	-11.4774
扱う	-11.4774
ネコ	-11.4777
かなーと思って	-11.478
電動	-11.478
悲しみ	-11.4781
はっきりと	-11.4782
ハング	-11.4782
魂の	-11.4783
ですねこれが	-11.4783
さあこれ	-11.4783
チェン	-11.4783
当たっ	-11.4786
頼んだ	-11.4787
詰	-11.4788
のではないかと	-11.4788
▁18	-11.4792
文を	-11.4795
推	-11.4796
摂	-11.4798
ねちゃんと	-11.4798
なんじゃないか	-11.4798
よそ	-11.4798
ログイン	-11.4798
方向性	-11.4799
▁A	-11.4799
はいこの	-11.4799
私の人生	-11.4799
必要はない	-11.4799
だったの	-11.4799
ちょっと見て	-11.4799
▁小さな	-11.48
バース	-11.4801
非常に重要	-11.4801
▁.	-11.4801
警察官	-11.4802
はいまあ	-11.4802
▁ファン	-11.4803
ソリューション	-11.4803
ディズニー	-11.4803
キャベツ	-11.4804
メンテナンス	-11.4804
庵	-11.4804
扇	-11.4804
いている	-11.4804
吠え	-11.4804
例外	-11.4804
友情	-11.4804
キノコ	-11.4804
火曜日	-11.4804
構図	-11.4804
融合	-11.4805
激しく	-11.4805
▁bgm	-11.4805
プロフィール	-11.4805
どうだろう	-11.4805
介入	-11.4806
ばー	-11.4806
やるよ	-11.4806
飛ばす	-11.4807
当局	-11.4808
すね	-11.4808
羽根	-11.4809
次の動画	-11.4809
書か	-11.481
20%	-11.481
かなーって	-11.481
っていきます	-11.4811
ソード	-11.4813
わけでしょ	-11.4813
▁皆様	-11.4814
▁サ	-11.4815
フリップ	-11.4815
▁多くの	-11.4815
るんじゃないか	-11.4816
もありますので	-11.4816
を付け	-11.4817
なっております	-11.4817
録	-11.4818
怒	-11.4819
リフ	-11.4822
ね俺	-11.4823
目立つ	-11.4823
向こうの	-11.4824
侵入	-11.4825
を作成し	-11.4825
それより	-11.4826
呼ばれる	-11.4826
光る	-11.4827
はあああああ	-11.4827
じゃあこの	-11.4828
考えております	-11.4828
といえ	-11.4829
ちょん	-11.4829
すま	-11.483
▁先生	-11.4833
お皿	-11.4834
ジャブ	-11.4836
▁誰もが	-11.4836
が出てる	-11.4839
楽に	-11.4839
が出ます	-11.4841
はれ	-11.4842
れています	-11.4844
あんなに	-11.4845
この番組は	-11.4846
ってことを	-11.4846
を追加	-11.4847
になるんです	-11.4847
木村	-11.4848
こり	-11.4849
にあり	-11.485
ねうーん	-11.4851
認知	-11.4851
らしいですね	-11.4851
って言うこと	-11.4857
本と	-11.4857
変数	-11.4857
が私	-11.4858
と彼は	-11.4858
でしかも	-11.4859
を経て	-11.4859
時間半	-11.486
それはそれ	-11.486
誘い	-11.486
放って	-11.4861
ぞー	-11.4861
の小	-11.4863
慎重に	-11.4864
姉あ	-11.4865
クエ	-11.4865
を紹介します	-11.4865
アワー	-11.4866
合わせた	-11.4868
いったい	-11.4869
に会い	-11.4869
などは	-11.487
しましたけど	-11.487
るんですが	-11.4872
ジャス	-11.4874
前日	-11.4875
あげれば	-11.4875
が全く	-11.4875
駆	-11.4878
ドット	-11.4878
凍	-11.4878
あったので	-11.4879
終わりたいと思います	-11.488
お願いし	-11.488
思ったり	-11.4881
楽しいです	-11.4883
▁思った	-11.4885
ッカ	-11.4886
si	-11.4887
ってしまう	-11.4889
こともできます	-11.4889
出かけ	-11.4891
儀	-11.4893
年ぶり	-11.4893
昼間	-11.4893
被害者	-11.4893
プロテイン	-11.4895
淳	-11.4895
W	-11.4895
趣旨	-11.4895
行ってきます	-11.4895
結晶	-11.4895
クラフト	-11.4895
売却	-11.4895
ギュ	-11.4895
受け取って	-11.4895
小山	-11.4896
パイロット	-11.4896
裁判官	-11.4897
配当	-11.4898
▁普通	-11.4898
クイック	-11.4899
カロリー	-11.4899
よろしいでしょうか	-11.4899
撃ち	-11.4899
▁dna	-11.49
を立て	-11.49
迷い	-11.4901
やってみた	-11.4902
点差	-11.4902
聞いている	-11.4903
来られ	-11.4903
みたいだ	-11.4903
覚えた	-11.4904
▁まあそういう	-11.4905
その上に	-11.4905
てるん	-11.4907
になりそう	-11.4907
場所です	-11.4908
座席	-11.491
ですけどまぁ	-11.491
いらっしゃいません	-11.491
やし	-11.4911
走ってる	-11.4913
に非常に	-11.4914
を提供	-11.4915
いいんじゃないですか	-11.4916
コム	-11.4917
お会いしましょう	-11.4919
薬物	-11.4919
含め	-11.4923
昨日は	-11.4924
買いたい	-11.4925
掘り	-11.4925
で見た	-11.4926
まずですね	-11.4926
説得	-11.4926
を意識して	-11.4926
贈	-11.4927
いるとき	-11.4927
フロ	-11.493
ままに	-11.493
異なります	-11.4932
割って	-11.4933
アメリカ人	-11.4934
のいくつか	-11.4934
とは思わない	-11.4934
の商品	-11.4934
やすさ	-11.4934
まあもう	-11.4936
になっちゃって	-11.4939
そこだけ	-11.494
いきますか	-11.4941
問題の	-11.4941
弾き	-11.4944
かと言いますと	-11.4946
いきたいな	-11.4946
論点	-11.4947
倒せ	-11.4947
じゃなくても	-11.4948
かなと思った	-11.4949
▁fm	-11.495
かなというふうに思います	-11.4952
ということなんです	-11.4954
all	-11.4955
かもしれませんね	-11.4957
したいです	-11.4959
なと思っています	-11.496
するんです	-11.4961
を手に入れ	-11.4961
▁すいません	-11.4961
が実際に	-11.4962
アポ	-11.4962
てみる	-11.4962
してもらった	-11.4964
長の	-11.4964
から見て	-11.4964
命が	-11.4965
似	-11.4965
奈良	-11.4965
野生	-11.4966
ェ	-11.4968
人でも	-11.4968
を用意	-11.4969
ザン	-11.4969
▁今年は	-11.4969
げる	-11.4969
すごく大事	-11.4971
スキ	-11.4971
よねはい	-11.4972
池田	-11.4973
そうですけど	-11.4973
クラスの	-11.4973
まらない	-11.4977
なかったんで	-11.4978
行ってみたい	-11.4978
結果を	-11.4978
のだろうか	-11.4978
の事	-11.4978
3%	-11.4979
ってなって	-11.4979
生かし	-11.4979
潰れ	-11.498
康	-11.4981
思いながら	-11.4984
全く同じ	-11.4985
を集め	-11.4985
ということで今回は	-11.4985
を入れた	-11.4986
かっていうのを	-11.4986
卓	-11.4986
機に	-11.4986
帰ってきて	-11.4987
できると思います	-11.4988
凸	-11.4988
陳	-11.4988
半導体	-11.4988
謙虚	-11.4988
構想	-11.4988
クッション	-11.4988
火災	-11.4988
グーグル	-11.4989
マッチング	-11.4989
暗記	-11.4989
絶望	-11.4989
人々を	-11.4989
チョップ	-11.4989
連邦	-11.499
リビング	-11.499
タックル	-11.499
器具	-11.4991
三振	-11.4991
名前の	-11.4991
につれて	-11.4991
切ら	-11.4991
反発	-11.4993
のでそこ	-11.4993
なんでまぁ	-11.4994
反動	-11.4994
がなければ	-11.4994
のファン	-11.4995
崩	-11.4995
ワイド	-11.4996
ヘビー	-11.4996
厚み	-11.4998
シャイ	-11.4998
と思ってた	-11.5
の悪い	-11.5001
母が	-11.5001
な音	-11.5002
寒く	-11.5002
ピント	-11.5004
あったりする	-11.5006
しそう	-11.5006
武装	-11.5006
キャンパス	-11.5009
耐え	-11.501
出血	-11.5011
腐	-11.5013
愛は	-11.5013
マヤ	-11.5014
自分たちが	-11.5014
でしょうねぇ	-11.5015
んまぁ	-11.5016
の場	-11.5017
円の	-11.5019
そういうことが	-11.502
何かしら	-11.502
ルカ	-11.5022
んじゃないかなって	-11.5023
大人の	-11.5024
たけ	-11.5025
渡り	-11.5025
まぁこの	-11.5025
はもっと	-11.5025
どころか	-11.5025
を持っていました	-11.5025
グッド	-11.5028
▁あんた	-11.5028
を進める	-11.5028
ロマン	-11.503
クロー	-11.5031
出された	-11.5031
ウエ	-11.5033
判決	-11.5033
ああなるほど	-11.5034
で打っ	-11.5034
になってしまいます	-11.5034
の時の	-11.5035
移民	-11.5035
そうしたら	-11.5035
内側に	-11.5035
見ることができます	-11.5036
滑る	-11.5037
みたいなもん	-11.5038
忘れない	-11.5038
を選択して	-11.5041
に対しても	-11.5042
ねこれね	-11.5042
島の	-11.5042
ようになり	-11.5042
きちゃう	-11.5043
は私たちの	-11.5046
▁こちらの	-11.5048
にアクセス	-11.5049
げっ	-11.505
ぜひあの	-11.5051
ここにいます	-11.5051
ようとしている	-11.5051
を確認して	-11.5053
ねこれで	-11.5053
ほっと	-11.5053
いつまで	-11.5054
見逃し	-11.5055
売れない	-11.5056
機能を	-11.5056
するんで	-11.5057
井さん	-11.5057
この国	-11.5059
しておりました	-11.5062
あーなんか	-11.5062
律	-11.5066
ねじ	-11.5068
大丈夫ですよ	-11.5069
感じですかね	-11.5069
動かして	-11.507
面白そう	-11.507
誰にも	-11.507
舞う	-11.507
であるとか	-11.5071
訴	-11.5072
の後ろに	-11.5073
再建	-11.5074
いいっ	-11.5074
の塔	-11.5075
しているということ	-11.5077
は基本的に	-11.5077
戦場	-11.5078
そー	-11.5078
おかしく	-11.5078
償	-11.508
になるんですけれども	-11.508
ドリンク	-11.508
ポイントです	-11.508
邸	-11.5081
旨	-11.5081
杏	-11.5081
樽	-11.5081
猪	-11.5081
ビタミン	-11.5081
放棄	-11.5081
合併	-11.5082
短縮	-11.5082
休暇	-11.5082
ゲーミング	-11.5082
制裁	-11.5082
主婦	-11.5083
考えてる	-11.5084
貨物	-11.5084
並行	-11.5084
をしよう	-11.5084
消費税	-11.5084
耳に	-11.5085
かなと思っています	-11.5085
▁noon	-11.5085
読書	-11.5086
させられ	-11.5087
ベータ	-11.5087
▁ああそう	-11.5088
のが好き	-11.5088
届いた	-11.5089
ですねこちらの	-11.5089
ない方	-11.509
いいじゃないですか	-11.5092
言うな	-11.5092
ソ連	-11.5093
先制	-11.5093
あーでも	-11.5093
ロット	-11.5093
するべき	-11.5095
気配	-11.5095
言葉に	-11.5096
言っています	-11.5096
お伺い	-11.5097
やってるんですけど	-11.5097
ハラ	-11.5097
付けた	-11.5098
テイ	-11.5099
飛ば	-11.5099
ーナ	-11.51
若手	-11.5101
自分でも	-11.5103
でこういう	-11.5105
食う	-11.5105
どういう意味	-11.5106
はやはり	-11.5106
とかいろんな	-11.5107
トレー	-11.5107
がここに	-11.5108
やったり	-11.5108
デブ	-11.5108
投資家	-11.5108
マネ	-11.5109
部分に	-11.5109
ベースの	-11.511
はこんな感じ	-11.511
こぼ	-11.511
を大きく	-11.5111
曲線	-11.5112
を意味します	-11.5112
つもりだ	-11.5113
吹いて	-11.5114
1200	-11.5114
現場に	-11.5114
してみると	-11.5116
新しいもの	-11.5117
県内	-11.5117
将軍	-11.512
平気	-11.512
が見えて	-11.5122
ブラウザ	-11.5122
矢部	-11.5122
お相手	-11.5122
名所	-11.5123
もしも	-11.5124
こういったもの	-11.5125
を愛して	-11.5125
ということになって	-11.5125
を動かす	-11.5127
▁こんなに	-11.5129
かっこ	-11.5129
悪口	-11.513
んだろうか	-11.513
▁不	-11.513
だからこの	-11.5131
おかないと	-11.5131
サンダー	-11.5131
航空機	-11.5132
それでまあ	-11.5132
辺り	-11.5133
割り当て	-11.5134
足で	-11.5134
と呼ぶ	-11.5134
ってことですね	-11.5135
160	-11.5137
勤	-11.5137
あれも	-11.5137
だったと思います	-11.5141
自然の	-11.5141
台で	-11.5141
得られ	-11.5141
サメ	-11.5142
ヌード	-11.5143
押さえ	-11.5144
しさ	-11.5145
で初めて	-11.5146
数分	-11.5147
で見る	-11.515
寄った	-11.5152
本音	-11.5152
何であるか	-11.5153
しなくていい	-11.5154
必死	-11.5154
まじか	-11.5155
指で	-11.5156
84	-11.5159
カサ	-11.516
明確	-11.5164
レイアウト	-11.5164
いるのに	-11.5164
なのでこの	-11.5165
んですよだから	-11.5165
アヌ	-11.5166
ぷり	-11.5167
やがて	-11.5167
円ぐらい	-11.5168
絵画	-11.5168
▁本日	-11.517
貼る	-11.517
ご用意	-11.517
ml	-11.5171
容器	-11.5171
ポジティブ	-11.5172
垣	-11.5172
込ま	-11.5173
▁hoo	-11.5174
疲労	-11.5176
モバイル	-11.5176
震災	-11.5176
暖かい	-11.5176
決断	-11.5177
ランス	-11.5177
飲食店	-11.5177
延期	-11.5177
こちゃん	-11.5178
代謝	-11.5178
ラジオネーム	-11.5178
幹線	-11.5178
ミュ	-11.5179
が起きた	-11.5179
視野	-11.5179
言っていた	-11.5179
そしてそれから	-11.518
おおおおおお	-11.518
これにより	-11.5181
アングル	-11.5181
接種	-11.5182
6%	-11.5183
公平	-11.5183
じゃないんだ	-11.5184
って言い	-11.5184
正体	-11.5185
ビデオで	-11.5185
わかっている	-11.5187
スプ	-11.5187
とかもう	-11.5188
ぐらいは	-11.5188
枚の	-11.5189
上手い	-11.519
増やして	-11.519
というところに	-11.519
プロパティ	-11.5191
シャトル	-11.5191
見てた	-11.5191
ライブ配信	-11.5191
機が	-11.5192
けっ	-11.5192
ダメージが	-11.5193
良かったです	-11.5193
体も	-11.5194
なかったけど	-11.5198
▁まさに	-11.5198
いなくて	-11.5199
あっている	-11.5199
研究を	-11.5201
んだと思う	-11.5205
で後	-11.5205
フェリー	-11.5206
不安定	-11.5207
飯田	-11.5208
リセット	-11.5208
おおおお	-11.5209
どういうもの	-11.5209
ローラー	-11.5209
の代わりに	-11.5212
なんでしょう	-11.5213
▁ロー	-11.5214
ティス	-11.5214
をご	-11.5216
触り	-11.5217
uh	-11.5217
んすよ	-11.5218
覚えておいてください	-11.5219
一気	-11.5219
を認め	-11.522
果	-11.5221
続きます	-11.5221
これすごい	-11.5221
話です	-11.5224
▁男	-11.5225
救	-11.5226
国旗	-11.5226
してみよう	-11.5226
非常に重要な	-11.5226
end	-11.5227
▁22	-11.5227
人だけ	-11.5228
がんば	-11.5229
▁早	-11.5231
アンカー	-11.5232
合流	-11.5233
雰囲気が	-11.5233
成功した	-11.5237
以外にも	-11.5238
いきたいと思います	-11.5238
対する	-11.5239
道の	-11.524
んだろうなぁ	-11.5241
という感じです	-11.5242
からこれ	-11.5243
きちゃった	-11.5247
あーん	-11.5248
きたので	-11.5248
かる	-11.525
使えば	-11.525
忍	-11.525
ue	-11.5253
大丈夫かな	-11.5253
で行く	-11.5254
がかかって	-11.5255
いただきましょう	-11.5256
初日	-11.5256
重要なこと	-11.5257
洗濯	-11.5258
▁あんな	-11.5258
つなぎ	-11.5259
同じです	-11.5263
主が	-11.5264
が早い	-11.5264
を助ける	-11.5265
述	-11.5265
完璧に	-11.5266
明日も	-11.5266
変わっていく	-11.5267
は彼の	-11.5267
っすよ	-11.5267
だったんですよね	-11.5268
▁one	-11.5268
監督の	-11.5268
呂	-11.5268
ていこう	-11.527
を作ろう	-11.527
見直し	-11.527
ぼう	-11.527
まぁこんな	-11.527
既	-11.527
アーカイブ	-11.5271
中小企業	-11.5271
シナリオ	-11.5271
叫び	-11.5271
マラソン	-11.5272
押さえて	-11.5272
打撃	-11.5272
▁den	-11.5272
あや	-11.5273
未満	-11.5273
をどのように	-11.5273
画質	-11.5273
てあげる	-11.5273
ベット	-11.5274
バックス	-11.5275
かかっ	-11.5276
さっぱり	-11.5276
ぐれ	-11.5277
ヤマ	-11.5277
食堂	-11.5277
いけるか	-11.5279
思えない	-11.5279
▁森	-11.528
炭素	-11.528
ウルトラ	-11.528
脳の	-11.5281
メリー	-11.5281
は次の	-11.5282
っぷ	-11.5282
三角形	-11.5284
そこへ	-11.5284
映画を	-11.5286
結婚式	-11.5287
マザー	-11.5288
組む	-11.5289
戻ってきました	-11.5289
を行った	-11.5289
右下	-11.529
映像を	-11.529
熱心	-11.5291
日本と	-11.5293
それなりに	-11.53
があるということ	-11.53
ダメです	-11.5302
幅が	-11.5302
データが	-11.5304
結果は	-11.5304
いただけました	-11.5305
のかっていうのを	-11.5306
わかるんですけど	-11.5309
お兄さん	-11.5312
大学で	-11.5312
▁ていました	-11.5313
出会う	-11.5313
でございますが	-11.5313
ですね結構	-11.5314
1/	-11.5314
余計	-11.5315
するだけで	-11.5315
が起こって	-11.5317
と思いますし	-11.5319
子に	-11.532
くらいに	-11.5322
を救う	-11.5322
コネ	-11.5323
行っちゃった	-11.5323
はおそらく	-11.5323
を信じて	-11.5324
微生物	-11.5326
結んで	-11.5327
わけでございます	-11.5328
と同じくらい	-11.5328
▁23	-11.5328
▁聞いて	-11.533
もうもう	-11.533
えええっ	-11.533
が全然	-11.5332
▁友達	-11.5332
ですねそして	-11.5333
パンク	-11.5336
に当たる	-11.5336
チャンネルで	-11.5336
を大切に	-11.5337
▁40	-11.5337
をお願いいたします	-11.5338
は彼	-11.5338
ぐっと	-11.5339
取ります	-11.534
結婚して	-11.534
で言えば	-11.534
降りる	-11.5341
方や	-11.5343
さず	-11.5345
しゃー	-11.5345
端から	-11.5345
勇	-11.5347
育てて	-11.535
ay	-11.535
味の	-11.535
が私の	-11.5354
ないんだよね	-11.5357
以内	-11.5357
覧	-11.5358
続きまして	-11.5358
っていうのはあの	-11.5358
やられ	-11.536
肝	-11.536
と書いて	-11.5361
手に入れた	-11.5362
台に	-11.5363
の解説	-11.5364
笛	-11.5365
を支える	-11.5366
尚	-11.5366
推奨	-11.5367
股	-11.5367
PDF	-11.5367
シリコン	-11.5367
いかがでしたでしょうか	-11.5367
干渉	-11.5367
頑張ろう	-11.5367
傍	-11.5367
絆	-11.5367
アニメーション	-11.5367
濃厚	-11.5368
時代は	-11.5368
現時点で	-11.5368
みんなも	-11.5368
銀河	-11.5368
宿題	-11.5368
藤吉	-11.5369
ニス	-11.5369
を通過	-11.537
に立ち	-11.537
ノイズ	-11.537
学生の	-11.537
ガラ	-11.537
そういうものを	-11.5371
アルバイト	-11.5371
を失って	-11.5374
帰ろう	-11.5374
お祝い	-11.5376
エナ	-11.5377
ようになっています	-11.5377
海外で	-11.5377
を組んで	-11.5377
ねぇあの	-11.5378
カーテン	-11.5378
上陸	-11.5379
良かったら	-11.5379
かもしれないし	-11.5379
無理やり	-11.538
▁mc	-11.538
の成長	-11.5381
とは思います	-11.5381
コック	-11.5381
ハロー	-11.5383
というものは	-11.5383
みたいなそういう	-11.5383
見たときに	-11.5386
するところ	-11.5386
じぇ	-11.5386
▁残り	-11.5387
買っ	-11.5388
問題で	-11.5388
ナッツ	-11.539
震え	-11.539
しておきましょう	-11.539
一緒です	-11.539
どうかな	-11.5392
残念な	-11.5393
削り	-11.5393
で買った	-11.5395
はいない	-11.5395
打ち合わせ	-11.5397
誰ですか	-11.5397
を落とし	-11.5399
年を	-11.54
冷え	-11.54
勉強し	-11.5401
そうなる	-11.5402
と言ったら	-11.5403
そして今	-11.5404
おらず	-11.5404
なかったり	-11.5404
区間	-11.5405
ボク	-11.5406
53	-11.5406
くれている	-11.5407
みたいなのが	-11.5407
▁er	-11.5408
課金	-11.541
化し	-11.5411
頭は	-11.5412
手元に	-11.5412
▁out	-11.5414
含まれ	-11.5414
ヘイ	-11.5414
香りが	-11.5416
お時間	-11.5417
に見えます	-11.5418
何百	-11.5418
主要	-11.5419
いらっしゃって	-11.542
衛	-11.5421
▁最高	-11.5422
チラ	-11.5424
僕を	-11.5425
ペッ	-11.5426
そんな風に	-11.5428
ガリ	-11.5428
なやつ	-11.5429
▁終わり	-11.5429
アール	-11.5429
元に	-11.5431
ルーン	-11.5432
もねあの	-11.5432
出産	-11.5433
予定です	-11.5434
行ったこと	-11.5436
▁何ですか	-11.5436
句	-11.5437
ちゃま	-11.5439
1%	-11.5441
高かった	-11.5442
混ざ	-11.5443
大丈夫だよ	-11.5443
pu	-11.5444
だったっけ	-11.5445
もないし	-11.5446
つある	-11.5448
スル	-11.545
必	-11.545
そうではありません	-11.545
と思うんだ	-11.545
マース	-11.5452
と思ってい	-11.5453
ヒー	-11.5455
内容が	-11.5455
スタンス	-11.5456
一体何	-11.5456
攻	-11.5457
証券	-11.5458
ゆく	-11.5459
執	-11.5459
スゴ	-11.546
探す	-11.546
使うと	-11.546
これらを	-11.546
童	-11.5461
銘	-11.5463
シンガポール	-11.5464
吾	-11.5464
撤退	-11.5464
槍	-11.5464
ストーカー	-11.5464
鎧	-11.5464
ネズミ	-11.5464
為替	-11.5464
希少	-11.5464
つま先	-11.5464
獅子	-11.5465
真央	-11.5465
既に	-11.5465
ツヤ	-11.5465
固有	-11.5465
解決策	-11.5466
大抵	-11.5466
聖霊	-11.5466
着陸	-11.5468
事務	-11.5469
rn	-11.5469
んこ	-11.5469
ドクター	-11.547
お手伝い	-11.547
現行	-11.547
握手	-11.547
小麦	-11.5471
見ることができる	-11.5473
アップロード	-11.5474
がうまく	-11.5474
行こうか	-11.5474
申	-11.5475
前進	-11.5475
の空	-11.5476
女の人	-11.5476
開けた	-11.5477
その先	-11.5477
▁一方で	-11.5478
がなくなって	-11.5478
出張	-11.5481
だということ	-11.5481
効いて	-11.5482
ヒート	-11.5482
に変更	-11.5483
▁それだけ	-11.5483
河川	-11.5486
の方でも	-11.5487
一番最初	-11.5489
入社	-11.5491
ことにしました	-11.5491
ブルース	-11.5491
話も	-11.5491
している人	-11.5491
っつって	-11.5492
いくか	-11.5492
▁天	-11.5492
▁だんだん	-11.5493
されてます	-11.5494
時間ぐらい	-11.5494
発電	-11.5495
ありますから	-11.5495
お祈り	-11.5496
機会が	-11.5496
イング	-11.5497
国立	-11.5498
が集まって	-11.5498
飛んだ	-11.5498
お母さんが	-11.5498
だけですね	-11.5498
の友達	-11.55
ですね大	-11.55
cp	-11.5502
いいだろう	-11.5502
▁地球	-11.5503
距離が	-11.5506
目安	-11.5512
レッツ	-11.5512
に関わる	-11.5513
協力して	-11.5513
江戸時代	-11.5513
話をする	-11.5514
溶け	-11.5514
流す	-11.5515
心は	-11.5515
炊	-11.5516
立た	-11.5517
1/2	-11.5517
とある	-11.5517
196	-11.5519
広がる	-11.5519
ってきて	-11.5521
キャス	-11.5521
木を	-11.5521
で終わる	-11.5521
裏側	-11.5523
んじゃないかと思います	-11.5524
トランス	-11.5524
載せて	-11.5525
▁親	-11.5528
たんですが	-11.5528
人として	-11.5532
ズー	-11.5532
▁この時	-11.5533
が大好きです	-11.5534
できてる	-11.5536
主役	-11.5538
▁もう一つ	-11.5539
いますけれども	-11.5539
▁どんどん	-11.554
を調べ	-11.554
もいいし	-11.5541
裏に	-11.5541
ab	-11.5541
開きます	-11.5544
また次回	-11.5544
誰の	-11.5544
をつけた	-11.5545
の巣	-11.5546
さらには	-11.5546
あいつら	-11.5546
シカ	-11.5548
変身	-11.5548
ねそれは	-11.555
というふうに思って	-11.5551
▁par	-11.5556
は現在	-11.5556
たぶんね	-11.5557
教えてくれる	-11.5557
使うの	-11.5558
はねあの	-11.5558
ぞう	-11.5559
ガム	-11.556
従来の	-11.556
自分から	-11.556
稽古	-11.5562
まあそうですね	-11.5562
指導者	-11.5562
お医者さん	-11.5562
▁face	-11.5562
維新	-11.5563
空いてる	-11.5563
があること	-11.5563
クラシック	-11.5563
▁その他	-11.5563
▁塩	-11.5563
みなさま	-11.5563
ポーン	-11.5563
ピンチ	-11.5564
ny	-11.5565
あそこで	-11.5565
うんこ	-11.5567
ボタンを	-11.5568
が持っている	-11.5569
なるほどなるほど	-11.5569
でさらに	-11.557
ところもある	-11.557
っていう感じですね	-11.5571
支払う	-11.5572
エッグ	-11.5572
プロの	-11.5574
▁平	-11.5576
こそが	-11.5576
ant	-11.5577
▁dm	-11.5577
りします	-11.5578
一撃	-11.5578
たぞ	-11.5578
思い出した	-11.5579
ear	-11.5579
私たちが持っている	-11.558
預け	-11.558
埼玉	-11.5581
ウェブ	-11.5583
ただその	-11.5585
イラク	-11.5586
はじめまして	-11.5586
いいですねー	-11.5587
の勉強	-11.5587
頼んで	-11.5588
動画は	-11.5588
番人気	-11.5589
られるように	-11.5589
んですけどちょっと	-11.5589
ページ目	-11.5593
の新しい	-11.5594
という風な	-11.5595
鳴ら	-11.5596
ニン	-11.5597
釣	-11.56
れー	-11.5601
やっちゃ	-11.5601
ねぇまぁ	-11.5601
ac	-11.5602
ni	-11.5603
しかいない	-11.5603
がなくなる	-11.5604
高校の	-11.5604
68	-11.5605
ランダー	-11.5605
見ていきます	-11.5606
くれると	-11.561
こちらから	-11.561
ラインを	-11.561
乗り越え	-11.5611
距離感	-11.5613
対立	-11.5613
妻が	-11.5616
わけなんですけど	-11.5616
はありませんでした	-11.5617
どこかで	-11.5618
セットアップ	-11.562
誇る	-11.5621
所は	-11.5623
者たち	-11.5623
何よりも	-11.5628
んああああああ	-11.5629
秋の	-11.563
さっき言った	-11.563
ものがあります	-11.563
しょうが	-11.563
を紹介して	-11.5631
クルマ	-11.5633
にしましょう	-11.5634
見学	-11.5634
あああーー	-11.5634
させていただいております	-11.5635
コイ	-11.5637
▁いうのは	-11.5637
ほしいと	-11.5637
son	-11.5637
一つだけ	-11.5639
をかけた	-11.5639
にとっても	-11.5639
見られて	-11.564
で全部	-11.564
入っちゃって	-11.5641
持って行って	-11.5642
メリ	-11.5647
の良さ	-11.5648
っていうのはですね	-11.5648
やってきて	-11.5648
いいよねぇ	-11.5649
隙	-11.565
▁そうか	-11.565
いるように	-11.565
好きじゃない	-11.5651
綺麗だ	-11.5653
けどもう	-11.5653
輝き	-11.5653
あけ	-11.5654
くださっている	-11.5655
の夜	-11.5655
登場する	-11.5656
姉さん	-11.5657
も非常に	-11.5658
の期間	-11.5659
浴	-11.5659
って言うんですけど	-11.566
整え	-11.566
珠	-11.566
させること	-11.566
すよ	-11.566
妊娠	-11.5661
シュッ	-11.5661
YouTube	-11.5661
妥当	-11.5661
ディーゼル	-11.5662
ないじゃないですか	-11.5662
に加え	-11.5662
直径	-11.5662
後ろで	-11.5662
気候	-11.5663
することができました	-11.5663
還元	-11.5663
ナンバーワン	-11.5663
オウム	-11.5663
が出来	-11.5663
の方へ	-11.5664
難病	-11.5664
っていうのはやっぱり	-11.5664
ブドウ	-11.5664
クラン	-11.5664
努力を	-11.5665
だろうなぁ	-11.5665
始めましょう	-11.5666
に行か	-11.5666
やめろ	-11.5666
の構造	-11.5666
余って	-11.5666
ツイン	-11.5668
徹底的に	-11.5668
録音	-11.5668
あるかな	-11.5669
前期	-11.5669
どー	-11.5669
部分も	-11.567
とあと	-11.567
キュッと	-11.5671
のかと	-11.5673
▁続きまして	-11.5675
ゆったり	-11.5682
ちょっと待ってください	-11.5682
確立	-11.5682
ice	-11.5683
▁姉	-11.5683
km	-11.5684
炎上	-11.5684
▁両	-11.5684
に慣れて	-11.5684
利点	-11.5686
▁すっごい	-11.5688
先生も	-11.5689
同一	-11.569
ねこ	-11.5691
ホル	-11.5691
ってその	-11.5692
▁アーサー	-11.5693
ふぇふぇふぇふぇふぇふぇふぇふぇ	-11.5694
話せ	-11.5694
じゃあまた	-11.5695
おしまい	-11.5695
重たい	-11.5696
市立	-11.5696
と思われます	-11.5699
話しました	-11.5699
移動する	-11.57
守れ	-11.57
の作り方	-11.5701
最終回	-11.5703
拾い	-11.5704
が実は	-11.5705
を立てて	-11.5705
ちょっとねあの	-11.5706
注意点	-11.5706
めく	-11.5707
三島	-11.5707
に変えて	-11.5708
あれか	-11.5709
って感じですね	-11.5709
てもらう	-11.571
やってました	-11.5712
シリーズの	-11.5712
行われ	-11.5712
金子	-11.5713
入れたら	-11.5714
この動画が	-11.5715
大江	-11.5718
いるわけ	-11.5718
残っ	-11.5719
パト	-11.5719
波長	-11.572
凄	-11.572
であっ	-11.572
さーああ	-11.5722
キャリイ	-11.5722
shi	-11.5723
ヘン	-11.5723
貴方	-11.5723
しなくて	-11.5723
ill	-11.5725
明確な	-11.5725
という事	-11.5726
そういうような	-11.5727
嫌いな	-11.5727
駅から	-11.5727
なるほどねー	-11.5727
色は	-11.5727
ミュー	-11.5729
この場所	-11.5732
歩け	-11.5732
できる限り	-11.5732
と戦う	-11.5732
いかがですか	-11.5733
それ以外	-11.5733
その前	-11.5734
動かし	-11.5735
試合で	-11.5735
あるのが	-11.5736
化された	-11.5739
って言うんですね	-11.5741
本当にね	-11.5741
今後は	-11.5742
ツン	-11.5742
お部屋	-11.5744
ロッカー	-11.5745
これがですね	-11.5746
すごいねー	-11.5747
前まで	-11.5748
果物	-11.5749
聞きます	-11.5752
坪	-11.5755
講演	-11.5755
見せた	-11.5755
コップ	-11.5757
を失う	-11.5757
というよりは	-11.5761
格闘	-11.5761
も何	-11.5761
紐	-11.5761
繊維	-11.5761
デフォルト	-11.5761
ダイレクト	-11.5761
太平洋	-11.5761
スイーツ	-11.5761
矛盾	-11.5761
アマゾン	-11.5761
ハリウッド	-11.5761
緩和	-11.5762
遠藤	-11.5763
夕食	-11.5763
細菌	-11.5763
英雄	-11.5763
きゅ	-11.5763
転送	-11.5764
投げた	-11.5764
二人で	-11.5765
この話	-11.5765
きー	-11.5766
ものですから	-11.5767
かああ	-11.5767
渋	-11.5767
現役	-11.5767
資本	-11.5767
やっぱりちょっと	-11.5767
世界が	-11.5768
を起こす	-11.5769
ミック	-11.5769
やっております	-11.5769
を重ね	-11.5769
英語の	-11.577
ファイアー	-11.577
ツイ	-11.5771
驚いた	-11.5772
頭から	-11.5773
現場の	-11.5774
あなたは私の	-11.5774
節約	-11.5774
日後	-11.5775
▁他にも	-11.5776
落下	-11.5776
ぶち	-11.5777
ウェル	-11.5778
の観点から	-11.5778
はですねあの	-11.5779
フラワー	-11.5779
よかっ	-11.578
を見たい	-11.578
マンの	-11.578
くっつけ	-11.5781
非常にあの	-11.5782
というので	-11.5783
誇	-11.5783
こっち側	-11.5786
のせいで	-11.5787
気づく	-11.5787
頃から	-11.5787
明日から	-11.5789
もいいです	-11.5789
期の	-11.5789
なんだと	-11.5789
の基礎	-11.579
ベラ	-11.5791
僕らは	-11.5791
もちゃんと	-11.5791
以	-11.5791
とぅ	-11.5793
▁ani	-11.5793
参加者	-11.5793
終盤	-11.5794
蒸し	-11.5795
ポイントが	-11.5795
果たし	-11.5797
アップして	-11.5797
これくらい	-11.5799
次が	-11.58
と思えば	-11.58
大いに	-11.5801
あきらめ	-11.5801
合っ	-11.5801
液体	-11.5802
に変え	-11.5803
面の	-11.5803
ココア	-11.5807
で十分	-11.5808
▁クラス	-11.5809
鉄の	-11.5814
していき	-11.5816
経験値	-11.5816
もらえると	-11.5816
日本人が	-11.5816
ロリ	-11.5818
▁sr	-11.5819
もうそれ	-11.582
だけではありません	-11.5821
与えられ	-11.5821
ると思う	-11.5821
伝説の	-11.5821
エリー	-11.5822
も本当に	-11.5822
そう思って	-11.5822
台車	-11.5822
出ると	-11.5823
訪れ	-11.5823
上がっ	-11.5824
移り	-11.5826
めの	-11.5826
ことにより	-11.5827
ゆっ	-11.5828
▁あっはぁ	-11.5828
っていうそういう	-11.583
▁はいじゃあ	-11.583
それよりも	-11.5831
▁お前は	-11.5831
きまー	-11.5831
産地	-11.5833
ああああああああああ	-11.5833
▁ここが	-11.5833
海で	-11.5834
▁ええええ	-11.5835
で作った	-11.5835
出している	-11.5835
言えません	-11.5835
としましょう	-11.5835
呪	-11.5837
けどさ	-11.5837
感覚が	-11.5838
▁この日	-11.5838
起こって	-11.5838
繋が	-11.5839
を終え	-11.5839
の周りに	-11.584
申し上げた	-11.5841
もうその	-11.5841
▁どうして	-11.5842
マウント	-11.5845
いう風に	-11.5846
選手も	-11.5847
誓い	-11.5849
あふれ	-11.5849
行ったんですけど	-11.5852
▁アーマー	-11.5853
これはまあ	-11.5855
塗った	-11.5855
護	-11.5855
普通は	-11.5856
片手	-11.5857
でさあ	-11.5858
くない	-11.5859
乗車	-11.5859
この状態	-11.5861
看護	-11.5862
寛	-11.5862
〜	-11.5862
寮	-11.5862
釘	-11.5862
往復	-11.5862
国を	-11.5862
函館	-11.5863
バッジ	-11.5863
頻度	-11.5863
あったけど	-11.5864
ほん	-11.5864
転職	-11.5864
るなぁ	-11.5865
新作	-11.5866
体操	-11.5866
▁約	-11.5866
まいりましょう	-11.5867
ってちょっと	-11.5867
tu	-11.5868
ティッシュ	-11.5868
ダンサー	-11.5868
捉える	-11.5869
見てほしい	-11.5869
ることは	-11.587
三浦	-11.587
長は	-11.5871
移住	-11.5871
北京	-11.5871
役員	-11.5872
エイド	-11.5874
行きません	-11.5875
強そう	-11.5875
はそんなに	-11.5876
▁感じで	-11.5877
信じられない	-11.5877
思っていた	-11.5878
友達に	-11.5879
できなくて	-11.588
メラ	-11.588
ねぇこれ	-11.5881
感じています	-11.5881
既存の	-11.5883
大規模	-11.5884
を傷つけ	-11.5884
おれ	-11.5885
が出ました	-11.5885
を狙う	-11.5885
世界観	-11.5886
の記事	-11.5886
ボウ	-11.5888
クー	-11.5888
祈って	-11.5889
しているのが	-11.5889
価値がある	-11.5891
また別の	-11.5891
ウォー	-11.5892
飲み物	-11.5892
バッチ	-11.5892
思いません	-11.5894
っていうのもある	-11.5895
サーバ	-11.5897
▁お店	-11.5898
れず	-11.5898
んち	-11.5898
やすかった	-11.5898
婆	-11.5899
リバー	-11.5901
ポンッ	-11.5902
迷	-11.5903
異性	-11.5904
41	-11.5905
今までは	-11.5905
迷って	-11.5905
伺	-11.5906
本来の	-11.5907
194	-11.5908
流通	-11.5909
セットで	-11.591
やすいです	-11.5911
のだろう	-11.5913
とっている	-11.5913
で最後	-11.5914
開か	-11.5916
のサイズ	-11.5916
▁サイズ	-11.5916
つらい	-11.5917
が多いです	-11.5917
経った	-11.5918
階です	-11.5918
関して	-11.5919
言えます	-11.5919
[...]
